{
  "version": "1.0",
  "truncation": null,
  "padding": null,
  "added_tokens": [
    {
      "id": 0,
      "content": "<unk>",
      "single_word": false,
      "lstrip": false,
      "rstrip": false,
      "normalized": false,
      "special": true
    },
    {
      "id": 1,
      "content": "<pad>",
      "single_word": false,
      "lstrip": false,
      "rstrip": false,
      "normalized": false,
      "special": true
    },
    {
      "id": 2,
      "content": "<cls>",
      "single_word": false,
      "lstrip": false,
      "rstrip": false,
      "normalized": false,
      "special": true
    },
    {
      "id": 3,
      "content": "<sep>",
      "single_word": false,
      "lstrip": false,
      "rstrip": false,
      "normalized": false,
      "special": true
    }
  ],
  "normalizer": {
    "type": "Sequence",
    "normalizers": [
      {
        "type": "NFKC"
      }
    ]
  },
  "pre_tokenizer": {
    "type": "Whitespace"
  },
  "post_processor": {
    "type": "TemplateProcessing",
    "single": [
      {
        "SpecialToken": {
          "id": "<cls>",
          "type_id": 0
        }
      },
      {
        "Sequence": {
          "id": "A",
          "type_id": 0
        }
      },
      {
        "SpecialToken": {
          "id": "<sep>",
          "type_id": 0
        }
      }
    ],
    "pair": [
      {
        "SpecialToken": {
          "id": "<cls>",
          "type_id": 0
        }
      },
      {
        "Sequence": {
          "id": "A",
          "type_id": 0
        }
      },
      {
        "SpecialToken": {
          "id": "<sep>",
          "type_id": 0
        }
      },
      {
        "Sequence": {
          "id": "B",
          "type_id": 1
        }
      },
      {
        "SpecialToken": {
          "id": "<sep>",
          "type_id": 1
        }
      }
    ],
    "special_tokens": {
      "<cls>": {
        "id": "<cls>",
        "ids": [
          2
        ],
        "tokens": [
          "<cls>"
        ]
      },
      "<sep>": {
        "id": "<sep>",
        "ids": [
          3
        ],
        "tokens": [
          "<sep>"
        ]
      }
    }
  },
  "decoder": null,
  "model": {
    "type": "BPE",
    "dropout": null,
    "unk_token": null,
    "continuing_subword_prefix": null,
    "end_of_word_suffix": null,
    "fuse_unk": false,
    "byte_fallback": false,
    "ignore_merges": false,
    "vocab": {
      "<unk>": 0,
      "<pad>": 1,
      "<cls>": 2,
      "<sep>": 3,
      "\b": 4,
      "!": 5,
      "\"": 6,
      "#": 7,
      "$": 8,
      "%": 9,
      "&": 10,
      "'": 11,
      "(": 12,
      ")": 13,
      "*": 14,
      "+": 15,
      ",": 16,
      "-": 17,
      ".": 18,
      "/": 19,
      "0": 20,
      "1": 21,
      "2": 22,
      "3": 23,
      "4": 24,
      "5": 25,
      "6": 26,
      "7": 27,
      "8": 28,
      "9": 29,
      ":": 30,
      ";": 31,
      "<": 32,
      "=": 33,
      ">": 34,
      "?": 35,
      "@": 36,
      "A": 37,
      "B": 38,
      "C": 39,
      "D": 40,
      "E": 41,
      "F": 42,
      "G": 43,
      "H": 44,
      "I": 45,
      "K": 46,
      "L": 47,
      "M": 48,
      "N": 49,
      "O": 50,
      "P": 51,
      "R": 52,
      "S": 53,
      "T": 54,
      "U": 55,
      "V": 56,
      "X": 57,
      "[": 58,
      "\\": 59,
      "]": 60,
      "_": 61,
      "`": 62,
      "a": 63,
      "b": 64,
      "c": 65,
      "d": 66,
      "e": 67,
      "f": 68,
      "g": 69,
      "h": 70,
      "i": 71,
      "j": 72,
      "k": 73,
      "l": 74,
      "m": 75,
      "n": 76,
      "o": 77,
      "p": 78,
      "r": 79,
      "s": 80,
      "t": 81,
      "u": 82,
      "v": 83,
      "w": 84,
      "x": 85,
      "y": 86,
      "{": 87,
      "}": 88,
      "~": 89,
      "Ô": 90,
      "×": 91,
      "è": 92,
      "ᄀ": 93,
      "ᄁ": 94,
      "ᄂ": 95,
      "ᄃ": 96,
      "ᄄ": 97,
      "ᄅ": 98,
      "ᄆ": 99,
      "ᄇ": 100,
      "ᄈ": 101,
      "ᄉ": 102,
      "ᄊ": 103,
      "ᄋ": 104,
      "ᄌ": 105,
      "ᄍ": 106,
      "ᄎ": 107,
      "ᄐ": 108,
      "ᄑ": 109,
      "ᄒ": 110,
      "ᅡ": 111,
      "ᅢ": 112,
      "ᅣ": 113,
      "ᅤ": 114,
      "ᅥ": 115,
      "ᅦ": 116,
      "ᅧ": 117,
      "ᅩ": 118,
      "ᅭ": 119,
      "ᅲ": 120,
      "ᅳ": 121,
      "ᅵ": 122,
      "ᆞ": 123,
      "ᆯ": 124,
      "ᆺ": 125,
      "ᆻ": 126,
      "ᆼ": 127,
      "▁": 128,
      "가": 129,
      "각": 130,
      "갂": 131,
      "간": 132,
      "갇": 133,
      "갈": 134,
      "갉": 135,
      "감": 136,
      "갑": 137,
      "값": 138,
      "갓": 139,
      "갔": 140,
      "강": 141,
      "갖": 142,
      "갗": 143,
      "같": 144,
      "갚": 145,
      "갛": 146,
      "개": 147,
      "객": 148,
      "갠": 149,
      "갤": 150,
      "갬": 151,
      "갭": 152,
      "갯": 153,
      "갰": 154,
      "갱": 155,
      "갸": 156,
      "갹": 157,
      "걀": 158,
      "걌": 159,
      "걍": 160,
      "걔": 161,
      "걘": 162,
      "걜": 163,
      "걩": 164,
      "거": 165,
      "걱": 166,
      "걲": 167,
      "건": 168,
      "걷": 169,
      "걸": 170,
      "검": 171,
      "겁": 172,
      "것": 173,
      "겄": 174,
      "겅": 175,
      "겆": 176,
      "겉": 177,
      "겊": 178,
      "겋": 179,
      "게": 180,
      "겍": 181,
      "겐": 182,
      "겔": 183,
      "겜": 184,
      "겝": 185,
      "겟": 186,
      "겠": 187,
      "겡": 188,
      "겧": 189,
      "겨": 190,
      "격": 191,
      "겪": 192,
      "견": 193,
      "결": 194,
      "겸": 195,
      "겹": 196,
      "겻": 197,
      "겼": 198,
      "경": 199,
      "곁": 200,
      "곂": 201,
      "계": 202,
      "곈": 203,
      "곗": 204,
      "곘": 205,
      "곙": 206,
      "고": 207,
      "곡": 208,
      "곤": 209,
      "곧": 210,
      "골": 211,
      "곪": 212,
      "곯": 213,
      "곰": 214,
      "곱": 215,
      "곳": 216,
      "곴": 217,
      "공": 218,
      "곶": 219,
      "곷": 220,
      "곹": 221,
      "곺": 222,
      "곻": 223,
      "과": 224,
      "곽": 225,
      "관": 226,
      "괄": 227,
      "괌": 228,
      "괍": 229,
      "괐": 230,
      "광": 231,
      "괘": 232,
      "괙": 233,
      "괜": 234,
      "괞": 235,
      "괨": 236,
      "괭": 237,
      "괴": 238,
      "괸": 239,
      "괼": 240,
      "굄": 241,
      "굅": 242,
      "굉": 243,
      "교": 244,
      "굔": 245,
      "굘": 246,
      "구": 247,
      "국": 248,
      "군": 249,
      "굳": 250,
      "굴": 251,
      "굵": 252,
      "굶": 253,
      "굻": 254,
      "굼": 255,
      "굽": 256,
      "굿": 257,
      "궁": 258,
      "궂": 259,
      "궃": 260,
      "궅": 261,
      "궈": 262,
      "권": 263,
      "궏": 264,
      "궐": 265,
      "궘": 266,
      "궙": 267,
      "궛": 268,
      "궜": 269,
      "궝": 270,
      "궤": 271,
      "궥": 272,
      "궨": 273,
      "궷": 274,
      "궹": 275,
      "귀": 276,
      "귁": 277,
      "귄": 278,
      "귈": 279,
      "귐": 280,
      "귑": 281,
      "귓": 282,
      "규": 283,
      "귝": 284,
      "균": 285,
      "귤": 286,
      "그": 287,
      "극": 288,
      "근": 289,
      "귿": 290,
      "글": 291,
      "긁": 292,
      "긂": 293,
      "긄": 294,
      "긇": 295,
      "금": 296,
      "급": 297,
      "긋": 298,
      "긍": 299,
      "긎": 300,
      "긑": 301,
      "긔": 302,
      "긘": 303,
      "기": 304,
      "긱": 305,
      "긴": 306,
      "긷": 307,
      "길": 308,
      "긿": 309,
      "김": 310,
      "깁": 311,
      "깃": 312,
      "깄": 313,
      "깅": 314,
      "깉": 315,
      "깊": 316,
      "까": 317,
      "깍": 318,
      "깎": 319,
      "깐": 320,
      "깔": 321,
      "깛": 322,
      "깜": 323,
      "깝": 324,
      "깞": 325,
      "깟": 326,
      "깠": 327,
      "깡": 328,
      "깢": 329,
      "깣": 330,
      "깥": 331,
      "깧": 332,
      "깨": 333,
      "깩": 334,
      "깬": 335,
      "깰": 336,
      "깸": 337,
      "깹": 338,
      "깻": 339,
      "깼": 340,
      "깽": 341,
      "꺁": 342,
      "꺄": 343,
      "꺅": 344,
      "꺆": 345,
      "꺠": 346,
      "꺡": 347,
      "꺤": 348,
      "꺨": 349,
      "꺳": 350,
      "꺴": 351,
      "꺼": 352,
      "꺽": 353,
      "꺾": 354,
      "껀": 355,
      "껄": 356,
      "껌": 357,
      "껍": 358,
      "껏": 359,
      "껐": 360,
      "껑": 361,
      "껕": 362,
      "껗": 363,
      "께": 364,
      "껜": 365,
      "껟": 366,
      "껫": 367,
      "껬": 368,
      "껭": 369,
      "껱": 370,
      "껴": 371,
      "껵": 372,
      "껶": 373,
      "껸": 374,
      "꼄": 375,
      "꼅": 376,
      "꼇": 377,
      "꼈": 378,
      "꼉": 379,
      "꼍": 380,
      "꼐": 381,
      "꼔": 382,
      "꼬": 383,
      "꼭": 384,
      "꼰": 385,
      "꼳": 386,
      "꼴": 387,
      "꼻": 388,
      "꼼": 389,
      "꼽": 390,
      "꼿": 391,
      "꽁": 392,
      "꽂": 393,
      "꽃": 394,
      "꽅": 395,
      "꽈": 396,
      "꽉": 397,
      "꽌": 398,
      "꽐": 399,
      "꽘": 400,
      "꽜": 401,
      "꽝": 402,
      "꽤": 403,
      "꽥": 404,
      "꽨": 405,
      "꽹": 406,
      "꾀": 407,
      "꾁": 408,
      "꾄": 409,
      "꾈": 410,
      "꾐": 411,
      "꾔": 412,
      "꾕": 413,
      "꾜": 414,
      "꾝": 415,
      "꾸": 416,
      "꾹": 417,
      "꾼": 418,
      "꿀": 419,
      "꿇": 420,
      "꿈": 421,
      "꿉": 422,
      "꿋": 423,
      "꿍": 424,
      "꿓": 425,
      "꿔": 426,
      "꿕": 427,
      "꿘": 428,
      "꿜": 429,
      "꿤": 430,
      "꿧": 431,
      "꿨": 432,
      "꿩": 433,
      "꿰": 434,
      "꿱": 435,
      "꿴": 436,
      "꿸": 437,
      "뀅": 438,
      "뀌": 439,
      "뀐": 440,
      "뀔": 441,
      "뀝": 442,
      "뀠": 443,
      "끄": 444,
      "끅": 445,
      "끈": 446,
      "끊": 447,
      "끋": 448,
      "끌": 449,
      "끓": 450,
      "끔": 451,
      "끕": 452,
      "끗": 453,
      "끙": 454,
      "끝": 455,
      "끼": 456,
      "끽": 457,
      "낀": 458,
      "낄": 459,
      "낌": 460,
      "낍": 461,
      "낏": 462,
      "낑": 463,
      "낕": 464,
      "나": 465,
      "낙": 466,
      "낚": 467,
      "난": 468,
      "낟": 469,
      "날": 470,
      "낡": 471,
      "낢": 472,
      "낣": 473,
      "남": 474,
      "납": 475,
      "낫": 476,
      "났": 477,
      "낭": 478,
      "낮": 479,
      "낯": 480,
      "낱": 481,
      "낳": 482,
      "내": 483,
      "낵": 484,
      "낸": 485,
      "낼": 486,
      "냄": 487,
      "냅": 488,
      "냇": 489,
      "냈": 490,
      "냉": 491,
      "냐": 492,
      "냑": 493,
      "냔": 494,
      "냘": 495,
      "냠": 496,
      "냤": 497,
      "냥": 498,
      "냬": 499,
      "냰": 500,
      "넁": 501,
      "너": 502,
      "넉": 503,
      "넊": 504,
      "넋": 505,
      "넌": 506,
      "널": 507,
      "넑": 508,
      "넒": 509,
      "넓": 510,
      "넗": 511,
      "넘": 512,
      "넙": 513,
      "넚": 514,
      "넛": 515,
      "넜": 516,
      "넝": 517,
      "넡": 518,
      "넢": 519,
      "넣": 520,
      "네": 521,
      "넥": 522,
      "넨": 523,
      "넫": 524,
      "넬": 525,
      "넴": 526,
      "넵": 527,
      "넷": 528,
      "넸": 529,
      "넹": 530,
      "넽": 531,
      "녀": 532,
      "녁": 533,
      "년": 534,
      "녈": 535,
      "념": 536,
      "녑": 537,
      "녓": 538,
      "녔": 539,
      "녕": 540,
      "녘": 541,
      "녜": 542,
      "녠": 543,
      "녱": 544,
      "노": 545,
      "녹": 546,
      "논": 547,
      "놀": 548,
      "놂": 549,
      "놈": 550,
      "놉": 551,
      "놋": 552,
      "농": 553,
      "놎": 554,
      "놏": 555,
      "높": 556,
      "놓": 557,
      "놔": 558,
      "놘": 559,
      "놤": 560,
      "놥": 561,
      "놧": 562,
      "놨": 563,
      "놩": 564,
      "놯": 565,
      "놰": 566,
      "뇁": 567,
      "뇌": 568,
      "뇐": 569,
      "뇜": 570,
      "뇨": 571,
      "뇬": 572,
      "뇽": 573,
      "누": 574,
      "눅": 575,
      "눈": 576,
      "눋": 577,
      "눌": 578,
      "눔": 579,
      "눕": 580,
      "눗": 581,
      "눙": 582,
      "눞": 583,
      "눟": 584,
      "눠": 585,
      "눤": 586,
      "눨": 587,
      "눰": 588,
      "눴": 589,
      "눵": 590,
      "눼": 591,
      "뉘": 592,
      "뉜": 593,
      "뉴": 594,
      "뉸": 595,
      "늄": 596,
      "늉": 597,
      "느": 598,
      "늑": 599,
      "는": 600,
      "늕": 601,
      "늗": 602,
      "늘": 603,
      "늙": 604,
      "늠": 605,
      "늡": 606,
      "늣": 607,
      "능": 608,
      "늦": 609,
      "늪": 610,
      "늫": 611,
      "늬": 612,
      "늰": 613,
      "니": 614,
      "닉": 615,
      "닊": 616,
      "닌": 617,
      "닏": 618,
      "닐": 619,
      "님": 620,
      "닙": 621,
      "닛": 622,
      "닜": 623,
      "닝": 624,
      "닢": 625,
      "닣": 626,
      "다": 627,
      "닥": 628,
      "닦": 629,
      "단": 630,
      "닪": 631,
      "닫": 632,
      "달": 633,
      "닭": 634,
      "닮": 635,
      "닯": 636,
      "닳": 637,
      "담": 638,
      "답": 639,
      "닷": 640,
      "닸": 641,
      "당": 642,
      "닺": 643,
      "닻": 644,
      "닽": 645,
      "닿": 646,
      "대": 647,
      "댁": 648,
      "댄": 649,
      "댇": 650,
      "댈": 651,
      "댐": 652,
      "댑": 653,
      "댓": 654,
      "댔": 655,
      "댕": 656,
      "댜": 657,
      "댱": 658,
      "댸": 659,
      "더": 660,
      "덕": 661,
      "덖": 662,
      "던": 663,
      "덛": 664,
      "덜": 665,
      "덝": 666,
      "덞": 667,
      "덟": 668,
      "덣": 669,
      "덤": 670,
      "덥": 671,
      "덧": 672,
      "덨": 673,
      "덩": 674,
      "덫": 675,
      "덮": 676,
      "덯": 677,
      "데": 678,
      "덱": 679,
      "덴": 680,
      "덷": 681,
      "델": 682,
      "뎀": 683,
      "뎁": 684,
      "뎃": 685,
      "뎄": 686,
      "뎅": 687,
      "뎆": 688,
      "뎊": 689,
      "뎌": 690,
      "뎐": 691,
      "뎜": 692,
      "뎠": 693,
      "뎡": 694,
      "뎨": 695,
      "뎬": 696,
      "도": 697,
      "독": 698,
      "돈": 699,
      "돋": 700,
      "돌": 701,
      "돍": 702,
      "돎": 703,
      "돔": 704,
      "돕": 705,
      "돗": 706,
      "동": 707,
      "돚": 708,
      "돛": 709,
      "돝": 710,
      "돟": 711,
      "돠": 712,
      "돴": 713,
      "돵": 714,
      "돼": 715,
      "됀": 716,
      "됄": 717,
      "됌": 718,
      "됍": 719,
      "됏": 720,
      "됐": 721,
      "됑": 722,
      "되": 723,
      "된": 724,
      "될": 725,
      "됨": 726,
      "됩": 727,
      "됫": 728,
      "됬": 729,
      "됭": 730,
      "됮": 731,
      "두": 732,
      "둑": 733,
      "둔": 734,
      "둗": 735,
      "둘": 736,
      "둚": 737,
      "둠": 738,
      "둡": 739,
      "둣": 740,
      "둤": 741,
      "둥": 742,
      "둬": 743,
      "둭": 744,
      "둰": 745,
      "둴": 746,
      "둼": 747,
      "둽": 748,
      "둿": 749,
      "뒀": 750,
      "뒁": 751,
      "뒈": 752,
      "뒌": 753,
      "뒘": 754,
      "뒛": 755,
      "뒝": 756,
      "뒤": 757,
      "뒨": 758,
      "뒷": 759,
      "뒸": 760,
      "뒹": 761,
      "듀": 762,
      "듈": 763,
      "듐": 764,
      "듕": 765,
      "드": 766,
      "득": 767,
      "든": 768,
      "듣": 769,
      "들": 770,
      "듦": 771,
      "듬": 772,
      "듭": 773,
      "듯": 774,
      "등": 775,
      "듸": 776,
      "듼": 777,
      "디": 778,
      "딕": 779,
      "딘": 780,
      "딛": 781,
      "딜": 782,
      "딞": 783,
      "딤": 784,
      "딥": 785,
      "딧": 786,
      "딨": 787,
      "딩": 788,
      "딪": 789,
      "딫": 790,
      "딮": 791,
      "따": 792,
      "딱": 793,
      "딲": 794,
      "딴": 795,
      "딸": 796,
      "땀": 797,
      "땁": 798,
      "땃": 799,
      "땄": 800,
      "땅": 801,
      "땋": 802,
      "때": 803,
      "땍": 804,
      "땐": 805,
      "땔": 806,
      "땜": 807,
      "땝": 808,
      "땟": 809,
      "땠": 810,
      "땡": 811,
      "땨": 812,
      "땽": 813,
      "떄": 814,
      "떈": 815,
      "떌": 816,
      "떔": 817,
      "떘": 818,
      "떙": 819,
      "떠": 820,
      "떡": 821,
      "떢": 822,
      "떤": 823,
      "떨": 824,
      "떫": 825,
      "떯": 826,
      "떰": 827,
      "떱": 828,
      "떳": 829,
      "떴": 830,
      "떵": 831,
      "떻": 832,
      "떼": 833,
      "떽": 834,
      "뗀": 835,
      "뗄": 836,
      "뗌": 837,
      "뗍": 838,
      "뗏": 839,
      "뗐": 840,
      "뗑": 841,
      "뗗": 842,
      "뗘": 843,
      "뗭": 844,
      "뗴": 845,
      "뗵": 846,
      "뗸": 847,
      "뗼": 848,
      "또": 849,
      "똑": 850,
      "똔": 851,
      "똗": 852,
      "똘": 853,
      "똟": 854,
      "똠": 855,
      "똡": 856,
      "똣": 857,
      "똥": 858,
      "똩": 859,
      "뙁": 860,
      "뙈": 861,
      "뙤": 862,
      "뙨": 863,
      "뚜": 864,
      "뚝": 865,
      "뚠": 866,
      "뚤": 867,
      "뚦": 868,
      "뚫": 869,
      "뚯": 870,
      "뚱": 871,
      "뚸": 872,
      "뛌": 873,
      "뛍": 874,
      "뛰": 875,
      "뛴": 876,
      "뛸": 877,
      "뜀": 878,
      "뜁": 879,
      "뜨": 880,
      "뜩": 881,
      "뜬": 882,
      "뜯": 883,
      "뜰": 884,
      "뜷": 885,
      "뜸": 886,
      "뜹": 887,
      "뜻": 888,
      "뜽": 889,
      "띁": 890,
      "띃": 891,
      "띄": 892,
      "띈": 893,
      "띌": 894,
      "띕": 895,
      "띠": 896,
      "띡": 897,
      "띤": 898,
      "띨": 899,
      "띱": 900,
      "띴": 901,
      "띵": 902,
      "라": 903,
      "락": 904,
      "란": 905,
      "랃": 906,
      "랄": 907,
      "람": 908,
      "랍": 909,
      "랏": 910,
      "랐": 911,
      "랑": 912,
      "랖": 913,
      "랗": 914,
      "래": 915,
      "랙": 916,
      "랜": 917,
      "랟": 918,
      "랠": 919,
      "램": 920,
      "랩": 921,
      "랫": 922,
      "랬": 923,
      "랭": 924,
      "랳": 925,
      "랴": 926,
      "략": 927,
      "랸": 928,
      "럈": 929,
      "량": 930,
      "럔": 931,
      "럤": 932,
      "러": 933,
      "럭": 934,
      "런": 935,
      "럴": 936,
      "럼": 937,
      "럽": 938,
      "럿": 939,
      "렀": 940,
      "렁": 941,
      "렇": 942,
      "레": 943,
      "렉": 944,
      "렌": 945,
      "렐": 946,
      "렘": 947,
      "렙": 948,
      "렛": 949,
      "렜": 950,
      "렝": 951,
      "려": 952,
      "력": 953,
      "련": 954,
      "렫": 955,
      "렬": 956,
      "렴": 957,
      "렵": 958,
      "렷": 959,
      "렸": 960,
      "령": 961,
      "렽": 962,
      "렿": 963,
      "례": 964,
      "롄": 965,
      "롈": 966,
      "로": 967,
      "록": 968,
      "론": 969,
      "롤": 970,
      "롥": 971,
      "롬": 972,
      "롭": 973,
      "롯": 974,
      "롱": 975,
      "롷": 976,
      "롸": 977,
      "롼": 978,
      "뢀": 979,
      "뢋": 980,
      "뢌": 981,
      "뢍": 982,
      "뢰": 983,
      "료": 984,
      "룍": 985,
      "룐": 986,
      "룝": 987,
      "룟": 988,
      "룡": 989,
      "루": 990,
      "룩": 991,
      "룬": 992,
      "룰": 993,
      "룸": 994,
      "룹": 995,
      "룻": 996,
      "룽": 997,
      "뤂": 998,
      "뤄": 999,
      "뤈": 1000,
      "뤔": 1001,
      "뤘": 1002,
      "뤙": 1003,
      "뤠": 1004,
      "뤼": 1005,
      "륄": 1006,
      "류": 1007,
      "륙": 1008,
      "륜": 1009,
      "률": 1010,
      "륨": 1011,
      "륭": 1012,
      "르": 1013,
      "륵": 1014,
      "른": 1015,
      "를": 1016,
      "름": 1017,
      "릅": 1018,
      "릇": 1019,
      "릉": 1020,
      "릎": 1021,
      "릏": 1022,
      "리": 1023,
      "릭": 1024,
      "린": 1025,
      "릳": 1026,
      "릴": 1027,
      "림": 1028,
      "립": 1029,
      "릿": 1030,
      "맀": 1031,
      "링": 1032,
      "마": 1033,
      "막": 1034,
      "만": 1035,
      "맍": 1036,
      "많": 1037,
      "맏": 1038,
      "말": 1039,
      "맑": 1040,
      "맒": 1041,
      "맘": 1042,
      "맙": 1043,
      "맛": 1044,
      "맜": 1045,
      "망": 1046,
      "맞": 1047,
      "맟": 1048,
      "맡": 1049,
      "맣": 1050,
      "매": 1051,
      "맥": 1052,
      "맨": 1053,
      "맫": 1054,
      "맬": 1055,
      "맴": 1056,
      "맵": 1057,
      "맷": 1058,
      "맸": 1059,
      "맹": 1060,
      "맺": 1061,
      "맻": 1062,
      "맽": 1063,
      "맿": 1064,
      "먀": 1065,
      "먁": 1066,
      "먄": 1067,
      "먈": 1068,
      "먕": 1069,
      "먗": 1070,
      "머": 1071,
      "먹": 1072,
      "먺": 1073,
      "먼": 1074,
      "먾": 1075,
      "멀": 1076,
      "멈": 1077,
      "멉": 1078,
      "멊": 1079,
      "멋": 1080,
      "멌": 1081,
      "멍": 1082,
      "멎": 1083,
      "멓": 1084,
      "메": 1085,
      "멕": 1086,
      "멘": 1087,
      "멜": 1088,
      "멤": 1089,
      "멥": 1090,
      "멧": 1091,
      "멨": 1092,
      "멩": 1093,
      "멪": 1094,
      "멫": 1095,
      "멭": 1096,
      "며": 1097,
      "멱": 1098,
      "면": 1099,
      "멶": 1100,
      "멸": 1101,
      "몀": 1102,
      "몃": 1103,
      "몄": 1104,
      "명": 1105,
      "몆": 1106,
      "몇": 1107,
      "몊": 1108,
      "몐": 1109,
      "몔": 1110,
      "몣": 1111,
      "모": 1112,
      "목": 1113,
      "몫": 1114,
      "몬": 1115,
      "몯": 1116,
      "몰": 1117,
      "몸": 1118,
      "몹": 1119,
      "몺": 1120,
      "못": 1121,
      "몽": 1122,
      "몾": 1123,
      "뫄": 1124,
      "뫼": 1125,
      "묏": 1126,
      "묘": 1127,
      "묙": 1128,
      "묜": 1129,
      "묫": 1130,
      "묭": 1131,
      "묮": 1132,
      "무": 1133,
      "묵": 1134,
      "묶": 1135,
      "문": 1136,
      "묻": 1137,
      "물": 1138,
      "묽": 1139,
      "뭄": 1140,
      "뭅": 1141,
      "뭇": 1142,
      "뭉": 1143,
      "뭍": 1144,
      "뭏": 1145,
      "뭐": 1146,
      "뭔": 1147,
      "뭘": 1148,
      "뭠": 1149,
      "뭡": 1150,
      "뭣": 1151,
      "뭤": 1152,
      "뭥": 1153,
      "뭬": 1154,
      "뮈": 1155,
      "뮌": 1156,
      "뮤": 1157,
      "뮬": 1158,
      "므": 1159,
      "믄": 1160,
      "믈": 1161,
      "믐": 1162,
      "믑": 1163,
      "믓": 1164,
      "믕": 1165,
      "믜": 1166,
      "미": 1167,
      "믹": 1168,
      "민": 1169,
      "믾": 1170,
      "믿": 1171,
      "밀": 1172,
      "밈": 1173,
      "밉": 1174,
      "밋": 1175,
      "밌": 1176,
      "밍": 1177,
      "밎": 1178,
      "및": 1179,
      "밑": 1180,
      "바": 1181,
      "박": 1182,
      "밖": 1183,
      "반": 1184,
      "받": 1185,
      "발": 1186,
      "밝": 1187,
      "밞": 1188,
      "밟": 1189,
      "밤": 1190,
      "밥": 1191,
      "밧": 1192,
      "밨": 1193,
      "방": 1194,
      "밪": 1195,
      "밭": 1196,
      "배": 1197,
      "백": 1198,
      "밲": 1199,
      "밴": 1200,
      "밸": 1201,
      "밻": 1202,
      "뱀": 1203,
      "뱁": 1204,
      "뱃": 1205,
      "뱄": 1206,
      "뱅": 1207,
      "뱇": 1208,
      "뱈": 1209,
      "뱉": 1210,
      "뱌": 1211,
      "뱔": 1212,
      "뱡": 1213,
      "버": 1214,
      "벅": 1215,
      "벆": 1216,
      "번": 1217,
      "벋": 1218,
      "벌": 1219,
      "벍": 1220,
      "범": 1221,
      "법": 1222,
      "벗": 1223,
      "벘": 1224,
      "벙": 1225,
      "벚": 1226,
      "베": 1227,
      "벡": 1228,
      "벢": 1229,
      "벤": 1230,
      "벧": 1231,
      "벨": 1232,
      "벰": 1233,
      "벱": 1234,
      "벳": 1235,
      "벴": 1236,
      "벵": 1237,
      "벷": 1238,
      "벹": 1239,
      "벼": 1240,
      "벽": 1241,
      "변": 1242,
      "볃": 1243,
      "별": 1244,
      "볌": 1245,
      "볍": 1246,
      "볏": 1247,
      "볐": 1248,
      "병": 1249,
      "볓": 1250,
      "볔": 1251,
      "볕": 1252,
      "보": 1253,
      "복": 1254,
      "볶": 1255,
      "본": 1256,
      "볼": 1257,
      "볽": 1258,
      "볿": 1259,
      "봄": 1260,
      "봅": 1261,
      "봇": 1262,
      "봈": 1263,
      "봉": 1264,
      "봍": 1265,
      "봐": 1266,
      "봑": 1267,
      "봔": 1268,
      "봘": 1269,
      "봠": 1270,
      "봡": 1271,
      "봣": 1272,
      "봤": 1273,
      "봥": 1274,
      "봬": 1275,
      "봰": 1276,
      "뵀": 1277,
      "뵁": 1278,
      "뵈": 1279,
      "뵌": 1280,
      "뵐": 1281,
      "뵘": 1282,
      "뵙": 1283,
      "뵛": 1284,
      "뵜": 1285,
      "뵝": 1286,
      "뵤": 1287,
      "부": 1288,
      "북": 1289,
      "붂": 1290,
      "분": 1291,
      "붇": 1292,
      "불": 1293,
      "붉": 1294,
      "붋": 1295,
      "붐": 1296,
      "붑": 1297,
      "붓": 1298,
      "붕": 1299,
      "붙": 1300,
      "붤": 1301,
      "붥": 1302,
      "붸": 1303,
      "뷔": 1304,
      "뷰": 1305,
      "뷸": 1306,
      "브": 1307,
      "븐": 1308,
      "블": 1309,
      "븜": 1310,
      "븝": 1311,
      "븥": 1312,
      "븨": 1313,
      "비": 1314,
      "빅": 1315,
      "빈": 1316,
      "빋": 1317,
      "빌": 1318,
      "빔": 1319,
      "빕": 1320,
      "빗": 1321,
      "빘": 1322,
      "빙": 1323,
      "빚": 1324,
      "빛": 1325,
      "빝": 1326,
      "빠": 1327,
      "빡": 1328,
      "빤": 1329,
      "빧": 1330,
      "빨": 1331,
      "빫": 1332,
      "빰": 1333,
      "빱": 1334,
      "빳": 1335,
      "빴": 1336,
      "빵": 1337,
      "빻": 1338,
      "빼": 1339,
      "빽": 1340,
      "빾": 1341,
      "뺀": 1342,
      "뺄": 1343,
      "뺌": 1344,
      "뺍": 1345,
      "뺏": 1346,
      "뺐": 1347,
      "뺑": 1348,
      "뺘": 1349,
      "뺨": 1350,
      "뺴": 1351,
      "뺵": 1352,
      "뺸": 1353,
      "뺼": 1354,
      "뻇": 1355,
      "뻈": 1356,
      "뻉": 1357,
      "뻐": 1358,
      "뻑": 1359,
      "뻔": 1360,
      "뻗": 1361,
      "뻘": 1362,
      "뻠": 1363,
      "뻣": 1364,
      "뻤": 1365,
      "뻥": 1366,
      "뻬": 1367,
      "뻰": 1368,
      "뻴": 1369,
      "뻿": 1370,
      "뼀": 1371,
      "뼈": 1372,
      "뼉": 1373,
      "뼌": 1374,
      "뼘": 1375,
      "뼛": 1376,
      "뼜": 1377,
      "뼝": 1378,
      "뽀": 1379,
      "뽁": 1380,
      "뽂": 1381,
      "뽄": 1382,
      "뽇": 1383,
      "뽈": 1384,
      "뽐": 1385,
      "뽑": 1386,
      "뽓": 1387,
      "뽕": 1388,
      "뽛": 1389,
      "뽜": 1390,
      "뽠": 1391,
      "뽰": 1392,
      "뾰": 1393,
      "뾱": 1394,
      "뿅": 1395,
      "뿌": 1396,
      "뿍": 1397,
      "뿐": 1398,
      "뿔": 1399,
      "뿜": 1400,
      "뿡": 1401,
      "뿩": 1402,
      "쁑": 1403,
      "쁘": 1404,
      "쁜": 1405,
      "쁠": 1406,
      "쁨": 1407,
      "쁩": 1408,
      "쁫": 1409,
      "삐": 1410,
      "삑": 1411,
      "삔": 1412,
      "삘": 1413,
      "삠": 1414,
      "삣": 1415,
      "삥": 1416,
      "사": 1417,
      "삭": 1418,
      "삮": 1419,
      "삯": 1420,
      "산": 1421,
      "살": 1422,
      "삵": 1423,
      "삶": 1424,
      "삷": 1425,
      "삻": 1426,
      "삼": 1427,
      "삽": 1428,
      "삿": 1429,
      "샀": 1430,
      "상": 1431,
      "샃": 1432,
      "샅": 1433,
      "샆": 1434,
      "샇": 1435,
      "새": 1436,
      "색": 1437,
      "샊": 1438,
      "샌": 1439,
      "샏": 1440,
      "샐": 1441,
      "샘": 1442,
      "샙": 1443,
      "샛": 1444,
      "샜": 1445,
      "생": 1446,
      "샤": 1447,
      "샥": 1448,
      "샨": 1449,
      "샬": 1450,
      "샴": 1451,
      "샵": 1452,
      "샷": 1453,
      "샸": 1454,
      "샹": 1455,
      "샾": 1456,
      "섀": 1457,
      "섄": 1458,
      "서": 1459,
      "석": 1460,
      "섞": 1461,
      "선": 1462,
      "섣": 1463,
      "설": 1464,
      "섦": 1465,
      "섧": 1466,
      "섬": 1467,
      "섭": 1468,
      "섯": 1469,
      "섰": 1470,
      "성": 1471,
      "섵": 1472,
      "섶": 1473,
      "세": 1474,
      "섹": 1475,
      "센": 1476,
      "섿": 1477,
      "셀": 1478,
      "셈": 1479,
      "셉": 1480,
      "셋": 1481,
      "셌": 1482,
      "셍": 1483,
      "셔": 1484,
      "셖": 1485,
      "션": 1486,
      "셜": 1487,
      "셤": 1488,
      "셥": 1489,
      "셧": 1490,
      "셨": 1491,
      "셩": 1492,
      "셰": 1493,
      "셴": 1494,
      "셸": 1495,
      "소": 1496,
      "속": 1497,
      "솎": 1498,
      "손": 1499,
      "솓": 1500,
      "솔": 1501,
      "솕": 1502,
      "솖": 1503,
      "솜": 1504,
      "솝": 1505,
      "솟": 1506,
      "송": 1507,
      "솥": 1508,
      "솧": 1509,
      "솨": 1510,
      "솩": 1511,
      "솰": 1512,
      "솽": 1513,
      "쇄": 1514,
      "쇅": 1515,
      "쇙": 1516,
      "쇠": 1517,
      "쇤": 1518,
      "쇱": 1519,
      "쇳": 1520,
      "쇵": 1521,
      "쇼": 1522,
      "쇽": 1523,
      "숀": 1524,
      "숄": 1525,
      "숍": 1526,
      "숏": 1527,
      "숑": 1528,
      "숖": 1529,
      "수": 1530,
      "숙": 1531,
      "숚": 1532,
      "순": 1533,
      "숟": 1534,
      "술": 1535,
      "숨": 1536,
      "숩": 1537,
      "숫": 1538,
      "숭": 1539,
      "숯": 1540,
      "숱": 1541,
      "숲": 1542,
      "숴": 1543,
      "숸": 1544,
      "숼": 1545,
      "쉄": 1546,
      "쉈": 1547,
      "쉉": 1548,
      "쉐": 1549,
      "쉑": 1550,
      "쉔": 1551,
      "쉘": 1552,
      "쉣": 1553,
      "쉬": 1554,
      "쉭": 1555,
      "쉰": 1556,
      "쉴": 1557,
      "쉼": 1558,
      "쉽": 1559,
      "쉿": 1560,
      "슈": 1561,
      "슉": 1562,
      "슌": 1563,
      "슐": 1564,
      "슘": 1565,
      "슛": 1566,
      "슝": 1567,
      "스": 1568,
      "슥": 1569,
      "슨": 1570,
      "슬": 1571,
      "슴": 1572,
      "습": 1573,
      "슷": 1574,
      "승": 1575,
      "슻": 1576,
      "슾": 1577,
      "싀": 1578,
      "싄": 1579,
      "싕": 1580,
      "시": 1581,
      "식": 1582,
      "싞": 1583,
      "신": 1584,
      "싣": 1585,
      "실": 1586,
      "싦": 1587,
      "싫": 1588,
      "심": 1589,
      "십": 1590,
      "싯": 1591,
      "싰": 1592,
      "싱": 1593,
      "싳": 1594,
      "싵": 1595,
      "싶": 1596,
      "싸": 1597,
      "싹": 1598,
      "싼": 1599,
      "싿": 1600,
      "쌀": 1601,
      "쌂": 1602,
      "쌃": 1603,
      "쌈": 1604,
      "쌉": 1605,
      "쌋": 1606,
      "쌌": 1607,
      "쌍": 1608,
      "쌓": 1609,
      "쌔": 1610,
      "쌕": 1611,
      "쌘": 1612,
      "쌜": 1613,
      "쌤": 1614,
      "쌥": 1615,
      "쌨": 1616,
      "쌩": 1617,
      "쌰": 1618,
      "쌱": 1619,
      "쌸": 1620,
      "썅": 1621,
      "썌": 1622,
      "썐": 1623,
      "썜": 1624,
      "썡": 1625,
      "써": 1626,
      "썩": 1627,
      "썪": 1628,
      "썬": 1629,
      "썰": 1630,
      "썲": 1631,
      "썸": 1632,
      "썹": 1633,
      "썻": 1634,
      "썼": 1635,
      "썽": 1636,
      "쎄": 1637,
      "쎅": 1638,
      "쎈": 1639,
      "쎌": 1640,
      "쎔": 1641,
      "쎕": 1642,
      "쎗": 1643,
      "쎘": 1644,
      "쎙": 1645,
      "쎠": 1646,
      "쎡": 1647,
      "쎴": 1648,
      "쎵": 1649,
      "쎼": 1650,
      "쏀": 1651,
      "쏍": 1652,
      "쏐": 1653,
      "쏘": 1654,
      "쏙": 1655,
      "쏜": 1656,
      "쏟": 1657,
      "쏠": 1658,
      "쏢": 1659,
      "쏨": 1660,
      "쏩": 1661,
      "쏫": 1662,
      "쏭": 1663,
      "쏳": 1664,
      "쏴": 1665,
      "쏵": 1666,
      "쏸": 1667,
      "쏼": 1668,
      "쐅": 1669,
      "쐈": 1670,
      "쐉": 1671,
      "쐐": 1672,
      "쐤": 1673,
      "쐥": 1674,
      "쐬": 1675,
      "쐰": 1676,
      "쐴": 1677,
      "쐼": 1678,
      "쑀": 1679,
      "쑁": 1680,
      "쑈": 1681,
      "쑝": 1682,
      "쑤": 1683,
      "쑥": 1684,
      "쑨": 1685,
      "쑬": 1686,
      "쑴": 1687,
      "쑵": 1688,
      "쑹": 1689,
      "쒀": 1690,
      "쒄": 1691,
      "쒐": 1692,
      "쒓": 1693,
      "쒔": 1694,
      "쒕": 1695,
      "쒜": 1696,
      "쒝": 1697,
      "쒠": 1698,
      "쒯": 1699,
      "쒸": 1700,
      "쒹": 1701,
      "쓰": 1702,
      "쓱": 1703,
      "쓴": 1704,
      "쓸": 1705,
      "씀": 1706,
      "씁": 1707,
      "씅": 1708,
      "씌": 1709,
      "씜": 1710,
      "씨": 1711,
      "씩": 1712,
      "씬": 1713,
      "씯": 1714,
      "씰": 1715,
      "씸": 1716,
      "씹": 1717,
      "씻": 1718,
      "씼": 1719,
      "씽": 1720,
      "아": 1721,
      "악": 1722,
      "안": 1723,
      "앉": 1724,
      "않": 1725,
      "앋": 1726,
      "알": 1727,
      "앎": 1728,
      "앏": 1729,
      "앓": 1730,
      "암": 1731,
      "압": 1732,
      "앖": 1733,
      "앗": 1734,
      "았": 1735,
      "앙": 1736,
      "앚": 1737,
      "앜": 1738,
      "앞": 1739,
      "애": 1740,
      "액": 1741,
      "앤": 1742,
      "앨": 1743,
      "앰": 1744,
      "앱": 1745,
      "앳": 1746,
      "앴": 1747,
      "앵": 1748,
      "야": 1749,
      "약": 1750,
      "얀": 1751,
      "얄": 1752,
      "얆": 1753,
      "얇": 1754,
      "얉": 1755,
      "얊": 1756,
      "얋": 1757,
      "얌": 1758,
      "얍": 1759,
      "얏": 1760,
      "얐": 1761,
      "양": 1762,
      "얒": 1763,
      "얕": 1764,
      "얖": 1765,
      "얗": 1766,
      "얘": 1767,
      "얜": 1768,
      "얠": 1769,
      "얫": 1770,
      "얬": 1771,
      "얭": 1772,
      "어": 1773,
      "억": 1774,
      "얶": 1775,
      "언": 1776,
      "얹": 1777,
      "얻": 1778,
      "얼": 1779,
      "얽": 1780,
      "엃": 1781,
      "엄": 1782,
      "업": 1783,
      "없": 1784,
      "엇": 1785,
      "었": 1786,
      "엉": 1787,
      "엊": 1788,
      "엌": 1789,
      "엎": 1790,
      "엏": 1791,
      "에": 1792,
      "엑": 1793,
      "엔": 1794,
      "엘": 1795,
      "엠": 1796,
      "엡": 1797,
      "엣": 1798,
      "엤": 1799,
      "엥": 1800,
      "여": 1801,
      "역": 1802,
      "엮": 1803,
      "연": 1804,
      "열": 1805,
      "염": 1806,
      "엽": 1807,
      "엾": 1808,
      "엿": 1809,
      "였": 1810,
      "영": 1811,
      "옄": 1812,
      "옅": 1813,
      "옆": 1814,
      "옇": 1815,
      "예": 1816,
      "옌": 1817,
      "옐": 1818,
      "옙": 1819,
      "옛": 1820,
      "옜": 1821,
      "옝": 1822,
      "오": 1823,
      "옥": 1824,
      "온": 1825,
      "옫": 1826,
      "올": 1827,
      "옭": 1828,
      "옮": 1829,
      "옯": 1830,
      "옳": 1831,
      "옴": 1832,
      "옵": 1833,
      "옶": 1834,
      "옷": 1835,
      "옹": 1836,
      "옻": 1837,
      "와": 1838,
      "왁": 1839,
      "완": 1840,
      "왈": 1841,
      "왐": 1842,
      "왑": 1843,
      "왓": 1844,
      "왔": 1845,
      "왕": 1846,
      "왖": 1847,
      "왜": 1848,
      "왝": 1849,
      "왠": 1850,
      "왤": 1851,
      "왰": 1852,
      "왱": 1853,
      "외": 1854,
      "왼": 1855,
      "욀": 1856,
      "욈": 1857,
      "욉": 1858,
      "욋": 1859,
      "욌": 1860,
      "욍": 1861,
      "요": 1862,
      "욕": 1863,
      "욘": 1864,
      "욜": 1865,
      "욤": 1866,
      "욥": 1867,
      "욧": 1868,
      "용": 1869,
      "욮": 1870,
      "우": 1871,
      "욱": 1872,
      "운": 1873,
      "울": 1874,
      "움": 1875,
      "웁": 1876,
      "웃": 1877,
      "웄": 1878,
      "웅": 1879,
      "웉": 1880,
      "워": 1881,
      "웍": 1882,
      "원": 1883,
      "웒": 1884,
      "월": 1885,
      "웜": 1886,
      "웝": 1887,
      "웟": 1888,
      "웠": 1889,
      "웡": 1890,
      "웨": 1891,
      "웩": 1892,
      "웬": 1893,
      "웰": 1894,
      "웸": 1895,
      "웹": 1896,
      "웽": 1897,
      "위": 1898,
      "윅": 1899,
      "윈": 1900,
      "윌": 1901,
      "윗": 1902,
      "윙": 1903,
      "유": 1904,
      "육": 1905,
      "윤": 1906,
      "율": 1907,
      "윰": 1908,
      "윳": 1909,
      "융": 1910,
      "윷": 1911,
      "으": 1912,
      "윽": 1913,
      "은": 1914,
      "읃": 1915,
      "을": 1916,
      "읅": 1917,
      "읆": 1918,
      "읊": 1919,
      "음": 1920,
      "읍": 1921,
      "읎": 1922,
      "읏": 1923,
      "응": 1924,
      "읒": 1925,
      "읓": 1926,
      "읔": 1927,
      "읗": 1928,
      "의": 1929,
      "읜": 1930,
      "읠": 1931,
      "읫": 1932,
      "읭": 1933,
      "이": 1934,
      "익": 1935,
      "읶": 1936,
      "인": 1937,
      "읺": 1938,
      "읻": 1939,
      "일": 1940,
      "읽": 1941,
      "잃": 1942,
      "임": 1943,
      "입": 1944,
      "잆": 1945,
      "잇": 1946,
      "있": 1947,
      "잉": 1948,
      "잊": 1949,
      "잌": 1950,
      "잎": 1951,
      "자": 1952,
      "작": 1953,
      "잔": 1954,
      "잖": 1955,
      "잘": 1956,
      "잚": 1957,
      "잠": 1958,
      "잡": 1959,
      "잣": 1960,
      "잤": 1961,
      "장": 1962,
      "잦": 1963,
      "잪": 1964,
      "잫": 1965,
      "재": 1966,
      "잭": 1967,
      "잰": 1968,
      "잴": 1969,
      "잼": 1970,
      "잽": 1971,
      "잿": 1972,
      "쟀": 1973,
      "쟁": 1974,
      "쟂": 1975,
      "쟈": 1976,
      "쟌": 1977,
      "쟎": 1978,
      "쟝": 1979,
      "쟤": 1980,
      "쟨": 1981,
      "저": 1982,
      "적": 1983,
      "전": 1984,
      "젆": 1985,
      "젇": 1986,
      "절": 1987,
      "젊": 1988,
      "젋": 1989,
      "젏": 1990,
      "점": 1991,
      "접": 1992,
      "젓": 1993,
      "젔": 1994,
      "정": 1995,
      "젖": 1996,
      "젚": 1997,
      "제": 1998,
      "젝": 1999,
      "젠": 2000,
      "젤": 2001,
      "젬": 2002,
      "젭": 2003,
      "젯": 2004,
      "젰": 2005,
      "젱": 2006,
      "젲": 2007,
      "져": 2008,
      "젹": 2009,
      "젼": 2010,
      "졀": 2011,
      "졈": 2012,
      "졉": 2013,
      "졋": 2014,
      "졌": 2015,
      "졍": 2016,
      "졎": 2017,
      "졔": 2018,
      "졘": 2019,
      "졩": 2020,
      "조": 2021,
      "족": 2022,
      "존": 2023,
      "졷": 2024,
      "졸": 2025,
      "졺": 2026,
      "좀": 2027,
      "좁": 2028,
      "좃": 2029,
      "종": 2030,
      "좆": 2031,
      "좇": 2032,
      "좋": 2033,
      "좌": 2034,
      "좍": 2035,
      "좐": 2036,
      "좔": 2037,
      "좜": 2038,
      "좝": 2039,
      "좡": 2040,
      "좽": 2041,
      "죄": 2042,
      "죅": 2043,
      "죈": 2044,
      "죕": 2045,
      "죗": 2046,
      "죙": 2047,
      "죠": 2048,
      "죡": 2049,
      "죤": 2050,
      "죵": 2051,
      "주": 2052,
      "죽": 2053,
      "준": 2054,
      "줄": 2055,
      "줅": 2056,
      "줌": 2057,
      "줍": 2058,
      "줏": 2059,
      "줐": 2060,
      "중": 2061,
      "줒": 2062,
      "줗": 2063,
      "줘": 2064,
      "줙": 2065,
      "줜": 2066,
      "줟": 2067,
      "줠": 2068,
      "줨": 2069,
      "줩": 2070,
      "줫": 2071,
      "줬": 2072,
      "줭": 2073,
      "줴": 2074,
      "줸": 2075,
      "쥉": 2076,
      "쥐": 2077,
      "쥔": 2078,
      "쥘": 2079,
      "쥥": 2080,
      "쥬": 2081,
      "쥰": 2082,
      "쥴": 2083,
      "즁": 2084,
      "즈": 2085,
      "즉": 2086,
      "즌": 2087,
      "즐": 2088,
      "즘": 2089,
      "즙": 2090,
      "즛": 2091,
      "증": 2092,
      "지": 2093,
      "직": 2094,
      "진": 2095,
      "짆": 2096,
      "짇": 2097,
      "질": 2098,
      "짊": 2099,
      "짋": 2100,
      "짐": 2101,
      "집": 2102,
      "짒": 2103,
      "짓": 2104,
      "짔": 2105,
      "징": 2106,
      "짖": 2107,
      "짙": 2108,
      "짚": 2109,
      "짜": 2110,
      "짝": 2111,
      "짞": 2112,
      "짠": 2113,
      "짢": 2114,
      "짤": 2115,
      "짦": 2116,
      "짧": 2117,
      "짬": 2118,
      "짭": 2119,
      "짯": 2120,
      "짰": 2121,
      "짱": 2122,
      "짲": 2123,
      "째": 2124,
      "짹": 2125,
      "짼": 2126,
      "쨀": 2127,
      "쨈": 2128,
      "쨉": 2129,
      "쨋": 2130,
      "쨌": 2131,
      "쨍": 2132,
      "쨑": 2133,
      "쨔": 2134,
      "쨜": 2135,
      "쨩": 2136,
      "쨰": 2137,
      "쨴": 2138,
      "쩀": 2139,
      "쩃": 2140,
      "쩄": 2141,
      "쩅": 2142,
      "쩌": 2143,
      "쩍": 2144,
      "쩐": 2145,
      "쩔": 2146,
      "쩜": 2147,
      "쩝": 2148,
      "쩟": 2149,
      "쩠": 2150,
      "쩡": 2151,
      "쩢": 2152,
      "쩧": 2153,
      "쩨": 2154,
      "쩬": 2155,
      "쩰": 2156,
      "쩼": 2157,
      "쪄": 2158,
      "쪈": 2159,
      "쪌": 2160,
      "쪔": 2161,
      "쪗": 2162,
      "쪘": 2163,
      "쪙": 2164,
      "쪼": 2165,
      "쪽": 2166,
      "쪾": 2167,
      "쫀": 2168,
      "쫄": 2169,
      "쫇": 2170,
      "쫌": 2171,
      "쫍": 2172,
      "쫏": 2173,
      "쫑": 2174,
      "쫒": 2175,
      "쫓": 2176,
      "쫗": 2177,
      "쫘": 2178,
      "쫙": 2179,
      "쫴": 2180,
      "쬐": 2181,
      "쬑": 2182,
      "쬠": 2183,
      "쭈": 2184,
      "쭉": 2185,
      "쭌": 2186,
      "쭐": 2187,
      "쭘": 2188,
      "쭙": 2189,
      "쭝": 2190,
      "쭤": 2191,
      "쮸": 2192,
      "쯔": 2193,
      "쯕": 2194,
      "쯤": 2195,
      "쯥": 2196,
      "쯧": 2197,
      "쯩": 2198,
      "쯪": 2199,
      "찌": 2200,
      "찍": 2201,
      "찎": 2202,
      "찐": 2203,
      "찔": 2204,
      "찕": 2205,
      "찜": 2206,
      "찝": 2207,
      "찟": 2208,
      "찡": 2209,
      "찢": 2210,
      "찦": 2211,
      "찧": 2212,
      "차": 2213,
      "착": 2214,
      "찬": 2215,
      "찮": 2216,
      "찰": 2217,
      "찱": 2218,
      "참": 2219,
      "찹": 2220,
      "찻": 2221,
      "찼": 2222,
      "창": 2223,
      "찾": 2224,
      "찿": 2225,
      "채": 2226,
      "책": 2227,
      "챈": 2228,
      "챌": 2229,
      "챔": 2230,
      "챕": 2231,
      "챗": 2232,
      "챘": 2233,
      "챙": 2234,
      "챠": 2235,
      "챡": 2236,
      "챤": 2237,
      "챦": 2238,
      "챱": 2239,
      "처": 2240,
      "척": 2241,
      "천": 2242,
      "철": 2243,
      "첨": 2244,
      "첩": 2245,
      "첫": 2246,
      "첬": 2247,
      "청": 2248,
      "첮": 2249,
      "체": 2250,
      "첵": 2251,
      "첸": 2252,
      "첼": 2253,
      "쳇": 2254,
      "쳐": 2255,
      "쳑": 2256,
      "쳔": 2257,
      "쳚": 2258,
      "쳠": 2259,
      "쳣": 2260,
      "쳤": 2261,
      "쳥": 2262,
      "초": 2263,
      "촉": 2264,
      "촌": 2265,
      "촐": 2266,
      "촘": 2267,
      "촙": 2268,
      "촛": 2269,
      "촜": 2270,
      "총": 2271,
      "촞": 2272,
      "촟": 2273,
      "촣": 2274,
      "촤": 2275,
      "촥": 2276,
      "촨": 2277,
      "촬": 2278,
      "촴": 2279,
      "촸": 2280,
      "촹": 2281,
      "최": 2282,
      "쵸": 2283,
      "춀": 2284,
      "춋": 2285,
      "추": 2286,
      "축": 2287,
      "춘": 2288,
      "춚": 2289,
      "춛": 2290,
      "출": 2291,
      "춤": 2292,
      "춥": 2293,
      "춧": 2294,
      "충": 2295,
      "춰": 2296,
      "춴": 2297,
      "춸": 2298,
      "췀": 2299,
      "췁": 2300,
      "췄": 2301,
      "췅": 2302,
      "췆": 2303,
      "췌": 2304,
      "취": 2305,
      "췹": 2306,
      "췻": 2307,
      "츄": 2308,
      "츈": 2309,
      "츠": 2310,
      "측": 2311,
      "츤": 2312,
      "츨": 2313,
      "츩": 2314,
      "츰": 2315,
      "층": 2316,
      "치": 2317,
      "칙": 2318,
      "친": 2319,
      "칞": 2320,
      "칟": 2321,
      "칠": 2322,
      "칡": 2323,
      "침": 2324,
      "칩": 2325,
      "칫": 2326,
      "칭": 2327,
      "카": 2328,
      "칵": 2329,
      "칸": 2330,
      "칼": 2331,
      "캄": 2332,
      "캅": 2333,
      "캇": 2334,
      "캈": 2335,
      "캉": 2336,
      "캎": 2337,
      "캐": 2338,
      "캑": 2339,
      "캔": 2340,
      "캘": 2341,
      "캠": 2342,
      "캡": 2343,
      "캣": 2344,
      "캤": 2345,
      "캥": 2346,
      "캩": 2347,
      "캬": 2348,
      "컁": 2349,
      "커": 2350,
      "컥": 2351,
      "컨": 2352,
      "컬": 2353,
      "컴": 2354,
      "컵": 2355,
      "컷": 2356,
      "컸": 2357,
      "컹": 2358,
      "케": 2359,
      "켁": 2360,
      "켄": 2361,
      "켈": 2362,
      "켐": 2363,
      "켓": 2364,
      "켔": 2365,
      "켕": 2366,
      "켜": 2367,
      "켠": 2368,
      "켤": 2369,
      "켬": 2370,
      "켭": 2371,
      "켯": 2372,
      "켰": 2373,
      "켱": 2374,
      "코": 2375,
      "콕": 2376,
      "콘": 2377,
      "콜": 2378,
      "콤": 2379,
      "콥": 2380,
      "콧": 2381,
      "콩": 2382,
      "콰": 2383,
      "콱": 2384,
      "콴": 2385,
      "콸": 2386,
      "쾅": 2387,
      "쾌": 2388,
      "쾍": 2389,
      "쾐": 2390,
      "쾡": 2391,
      "쾰": 2392,
      "쿄": 2393,
      "쿠": 2394,
      "쿡": 2395,
      "쿤": 2396,
      "쿨": 2397,
      "쿰": 2398,
      "쿱": 2399,
      "쿳": 2400,
      "쿵": 2401,
      "쿼": 2402,
      "퀀": 2403,
      "퀄": 2404,
      "퀘": 2405,
      "퀭": 2406,
      "퀴": 2407,
      "퀵": 2408,
      "퀸": 2409,
      "퀼": 2410,
      "큄": 2411,
      "큅": 2412,
      "큐": 2413,
      "큘": 2414,
      "크": 2415,
      "큭": 2416,
      "큰": 2417,
      "클": 2418,
      "큼": 2419,
      "큽": 2420,
      "킁": 2421,
      "키": 2422,
      "킥": 2423,
      "킨": 2424,
      "킬": 2425,
      "킴": 2426,
      "킵": 2427,
      "킷": 2428,
      "킸": 2429,
      "킹": 2430,
      "타": 2431,
      "탁": 2432,
      "탄": 2433,
      "탈": 2434,
      "탉": 2435,
      "탐": 2436,
      "탑": 2437,
      "탓": 2438,
      "탔": 2439,
      "탕": 2440,
      "탖": 2441,
      "태": 2442,
      "택": 2443,
      "탠": 2444,
      "탤": 2445,
      "탬": 2446,
      "탭": 2447,
      "탯": 2448,
      "탰": 2449,
      "탱": 2450,
      "탸": 2451,
      "터": 2452,
      "턱": 2453,
      "턴": 2454,
      "턷": 2455,
      "털": 2456,
      "텀": 2457,
      "텁": 2458,
      "텃": 2459,
      "텄": 2460,
      "텅": 2461,
      "텉": 2462,
      "테": 2463,
      "텍": 2464,
      "텐": 2465,
      "텔": 2466,
      "템": 2467,
      "텝": 2468,
      "텟": 2469,
      "텡": 2470,
      "텨": 2471,
      "텬": 2472,
      "텸": 2473,
      "텼": 2474,
      "텽": 2475,
      "톈": 2476,
      "토": 2477,
      "톡": 2478,
      "톤": 2479,
      "톧": 2480,
      "톨": 2481,
      "톰": 2482,
      "톱": 2483,
      "톳": 2484,
      "통": 2485,
      "톹": 2486,
      "퇀": 2487,
      "퇘": 2488,
      "퇴": 2489,
      "퇸": 2490,
      "퇼": 2491,
      "툇": 2492,
      "툐": 2493,
      "투": 2494,
      "툭": 2495,
      "툰": 2496,
      "툴": 2497,
      "툼": 2498,
      "툽": 2499,
      "퉁": 2500,
      "퉈": 2501,
      "퉌": 2502,
      "퉜": 2503,
      "퉝": 2504,
      "퉤": 2505,
      "튀": 2506,
      "튄": 2507,
      "튈": 2508,
      "튕": 2509,
      "튜": 2510,
      "튠": 2511,
      "튤": 2512,
      "튬": 2513,
      "튭": 2514,
      "트": 2515,
      "특": 2516,
      "튼": 2517,
      "튿": 2518,
      "틀": 2519,
      "틈": 2520,
      "틉": 2521,
      "틋": 2522,
      "틍": 2523,
      "틑": 2524,
      "틔": 2525,
      "티": 2526,
      "틱": 2527,
      "틴": 2528,
      "틷": 2529,
      "틸": 2530,
      "팀": 2531,
      "팁": 2532,
      "팃": 2533,
      "팅": 2534,
      "파": 2535,
      "팍": 2536,
      "팎": 2537,
      "판": 2538,
      "팓": 2539,
      "팔": 2540,
      "팙": 2541,
      "팜": 2542,
      "팝": 2543,
      "팟": 2544,
      "팠": 2545,
      "팡": 2546,
      "팥": 2547,
      "패": 2548,
      "팩": 2549,
      "팬": 2550,
      "팰": 2551,
      "팸": 2552,
      "팹": 2553,
      "팻": 2554,
      "팼": 2555,
      "팽": 2556,
      "퍄": 2557,
      "퍼": 2558,
      "퍽": 2559,
      "펀": 2560,
      "펄": 2561,
      "펌": 2562,
      "펍": 2563,
      "펏": 2564,
      "펐": 2565,
      "펑": 2566,
      "펕": 2567,
      "페": 2568,
      "펙": 2569,
      "펜": 2570,
      "펠": 2571,
      "펨": 2572,
      "펩": 2573,
      "펫": 2574,
      "펭": 2575,
      "펴": 2576,
      "편": 2577,
      "펼": 2578,
      "폄": 2579,
      "폅": 2580,
      "폈": 2581,
      "평": 2582,
      "폐": 2583,
      "폔": 2584,
      "포": 2585,
      "폭": 2586,
      "폰": 2587,
      "폴": 2588,
      "폼": 2589,
      "폽": 2590,
      "폿": 2591,
      "퐁": 2592,
      "퐅": 2593,
      "퐉": 2594,
      "퐜": 2595,
      "퐝": 2596,
      "푀": 2597,
      "표": 2598,
      "푠": 2599,
      "푤": 2600,
      "푸": 2601,
      "푹": 2602,
      "푼": 2603,
      "풀": 2604,
      "풂": 2605,
      "품": 2606,
      "풉": 2607,
      "풋": 2608,
      "풍": 2609,
      "풑": 2610,
      "풔": 2611,
      "풰": 2612,
      "퓨": 2613,
      "퓸": 2614,
      "프": 2615,
      "픈": 2616,
      "플": 2617,
      "픔": 2618,
      "픕": 2619,
      "픙": 2620,
      "피": 2621,
      "픽": 2622,
      "핀": 2623,
      "필": 2624,
      "핌": 2625,
      "핍": 2626,
      "핏": 2627,
      "핑": 2628,
      "하": 2629,
      "학": 2630,
      "한": 2631,
      "핞": 2632,
      "핟": 2633,
      "할": 2634,
      "핢": 2635,
      "핥": 2636,
      "핧": 2637,
      "함": 2638,
      "합": 2639,
      "핫": 2640,
      "핬": 2641,
      "항": 2642,
      "핮": 2643,
      "핰": 2644,
      "핳": 2645,
      "해": 2646,
      "핵": 2647,
      "핶": 2648,
      "핸": 2649,
      "핻": 2650,
      "핼": 2651,
      "햄": 2652,
      "햅": 2653,
      "햇": 2654,
      "했": 2655,
      "행": 2656,
      "햋": 2657,
      "햍": 2658,
      "햐": 2659,
      "햑": 2660,
      "햔": 2661,
      "햝": 2662,
      "햤": 2663,
      "향": 2664,
      "햫": 2665,
      "햬": 2666,
      "햿": 2667,
      "헀": 2668,
      "허": 2669,
      "헉": 2670,
      "헌": 2671,
      "헐": 2672,
      "험": 2673,
      "헙": 2674,
      "헛": 2675,
      "헜": 2676,
      "헝": 2677,
      "헠": 2678,
      "헡": 2679,
      "헣": 2680,
      "헤": 2681,
      "헥": 2682,
      "헨": 2683,
      "헬": 2684,
      "헴": 2685,
      "헷": 2686,
      "헸": 2687,
      "헹": 2688,
      "혀": 2689,
      "혁": 2690,
      "현": 2691,
      "혈": 2692,
      "혐": 2693,
      "협": 2694,
      "혓": 2695,
      "혔": 2696,
      "형": 2697,
      "혜": 2698,
      "혠": 2699,
      "호": 2700,
      "혹": 2701,
      "혼": 2702,
      "홀": 2703,
      "홅": 2704,
      "홇": 2705,
      "홈": 2706,
      "홉": 2707,
      "홋": 2708,
      "홍": 2709,
      "홑": 2710,
      "화": 2711,
      "확": 2712,
      "환": 2713,
      "활": 2714,
      "홧": 2715,
      "황": 2716,
      "홰": 2717,
      "홱": 2718,
      "횃": 2719,
      "횄": 2720,
      "횅": 2721,
      "회": 2722,
      "획": 2723,
      "횐": 2724,
      "횔": 2725,
      "횟": 2726,
      "횡": 2727,
      "효": 2728,
      "횬": 2729,
      "횽": 2730,
      "후": 2731,
      "훅": 2732,
      "훈": 2733,
      "훌": 2734,
      "훍": 2735,
      "훑": 2736,
      "훓": 2737,
      "훔": 2738,
      "훗": 2739,
      "훙": 2740,
      "훠": 2741,
      "훤": 2742,
      "훨": 2743,
      "훵": 2744,
      "훼": 2745,
      "훽": 2746,
      "휑": 2747,
      "휘": 2748,
      "휙": 2749,
      "휜": 2750,
      "휠": 2751,
      "휩": 2752,
      "휭": 2753,
      "휴": 2754,
      "휼": 2755,
      "흉": 2756,
      "흐": 2757,
      "흑": 2758,
      "흔": 2759,
      "흘": 2760,
      "흙": 2761,
      "흝": 2762,
      "흠": 2763,
      "흡": 2764,
      "흣": 2765,
      "흥": 2766,
      "흩": 2767,
      "희": 2768,
      "흭": 2769,
      "흰": 2770,
      "흴": 2771,
      "히": 2772,
      "힉": 2773,
      "힌": 2774,
      "힐": 2775,
      "힘": 2776,
      "힙": 2777,
      "힛": 2778,
      "힝": 2779,
      "10": 2780,
      "12": 2781,
      "13": 2782,
      "14": 2783,
      "15": 2784,
      "16": 2785,
      "17": 2786,
      "18": 2787,
      "19": 2788,
      "20": 2789,
      "23": 2790,
      "24": 2791,
      "25": 2792,
      "26": 2793,
      "27": 2794,
      "28": 2795,
      "29": 2796,
      "30": 2797,
      "34": 2798,
      "35": 2799,
      "36": 2800,
      "37": 2801,
      "38": 2802,
      "39": 2803,
      "40": 2804,
      "45": 2805,
      "46": 2806,
      "47": 2807,
      "48": 2808,
      "49": 2809,
      "50": 2810,
      "56": 2811,
      "57": 2812,
      "58": 2813,
      "59": 2814,
      "60": 2815,
      "67": 2816,
      "68": 2817,
      "69": 2818,
      "70": 2819,
      "78": 2820,
      "79": 2821,
      "80": 2822,
      "89": 2823,
      "90": 2824,
      "88": 2825,
      "77": 2826,
      "66": 2827,
      "99": 2828,
      "55": 2829,
      "44": 2830,
      "33": 2831,
      "22": 2832,
      "98": 2833,
      "11": 2834,
      "76": 2835,
      "54": 2836,
      "87": 2837,
      "97": 2838,
      "86": 2839,
      "96": 2840,
      "32": 2841,
      "65": 2842,
      "75": 2843,
      "43": 2844,
      "85": 2845,
      "95": 2846,
      "64": 2847,
      "74": 2848,
      "84": 2849,
      "21": 2850,
      "53": 2851,
      "94": 2852,
      "63": 2853,
      "73": 2854,
      "42": 2855,
      "31": 2856,
      "52": 2857,
      "83": 2858,
      "니까": 2859,
      "93": 2860,
      "62": 2861,
      "72": 2862,
      "41": 2863,
      "51": 2864,
      "82": 2865,
      "는데": 2866,
      "92": 2867,
      "61": 2868,
      "71": 2869,
      "81": 2870,
      "91": 2871,
      "00": 2872,
      "01": 2873,
      "02": 2874,
      "03": 2875,
      "04": 2876,
      "05": 2877,
      "06": 2878,
      "07": 2879,
      "08": 2880,
      "09": 2881,
      "들어": 2882,
      "다고": 2883,
      "잖아": 2884,
      "생각": 2885,
      "신디": 2886,
      "아니": 2887,
      "에서": 2888,
      "가지": 2889,
      "라고": 2890,
      "하는": 2891,
      "으면": 2892,
      "한테": 2893,
      "으로": 2894,
      "사람": 2895,
      "아이": 2896,
      "었어": 2897,
      "다가": 2898,
      "가지고": 2899,
      "는거": 2900,
      "머니": 2901,
      "모르": 2902,
      "아서": 2903,
      "그렇": 2904,
      "어서": 2905,
      "하고": 2906,
      "거든": 2907,
      "그러": 2908,
      "면서": 2909,
      "먹어": 2910,
      "어요": 2911,
      "들이": 2912,
      "좋아": 2913,
      "친구": 2914,
      "학교": 2915,
      "까지": 2916,
      "려고": 2917,
      "부난": 2918,
      "얘기": 2919,
      "우리": 2920,
      "주게": 2921,
      "거기": 2922,
      "구나": 2923,
      "버리": 2924,
      "부터": 2925,
      "에는": 2926,
      "하면": 2927,
      "하지": 2928,
      "해서": 2929,
      "그런": 2930,
      "니깐": 2931,
      "니다": 2932,
      "다니": 2933,
      "으니까": 2934,
      "110": 2935,
      "112": 2936,
      "113": 2937,
      "114": 2938,
      "115": 2939,
      "116": 2940,
      "117": 2941,
      "118": 2942,
      "119": 2943,
      "210": 2944,
      "212": 2945,
      "213": 2946,
      "214": 2947,
      "215": 2948,
      "216": 2949,
      "217": 2950,
      "218": 2951,
      "219": 2952,
      "220": 2953,
      "223": 2954,
      "224": 2955,
      "225": 2956,
      "226": 2957,
      "227": 2958,
      "228": 2959,
      "229": 2960,
      "310": 2961,
      "312": 2962,
      "313": 2963,
      "314": 2964,
      "315": 2965,
      "316": 2966,
      "317": 2967,
      "318": 2968,
      "319": 2969,
      "320": 2970,
      "323": 2971,
      "324": 2972,
      "325": 2973,
      "326": 2974,
      "327": 2975,
      "328": 2976,
      "329": 2977,
      "330": 2978,
      "334": 2979,
      "335": 2980,
      "336": 2981,
      "337": 2982,
      "338": 2983,
      "339": 2984,
      "410": 2985,
      "412": 2986,
      "413": 2987,
      "414": 2988,
      "415": 2989,
      "416": 2990,
      "417": 2991,
      "418": 2992,
      "419": 2993,
      "420": 2994,
      "423": 2995,
      "424": 2996,
      "425": 2997,
      "426": 2998,
      "427": 2999,
      "428": 3000,
      "429": 3001,
      "430": 3002,
      "434": 3003,
      "435": 3004,
      "436": 3005,
      "437": 3006,
      "438": 3007,
      "439": 3008,
      "440": 3009,
      "445": 3010,
      "446": 3011,
      "447": 3012,
      "448": 3013,
      "449": 3014,
      "510": 3015,
      "512": 3016,
      "513": 3017,
      "514": 3018,
      "515": 3019,
      "516": 3020,
      "517": 3021,
      "518": 3022,
      "519": 3023,
      "520": 3024,
      "523": 3025,
      "524": 3026,
      "525": 3027,
      "526": 3028,
      "527": 3029,
      "528": 3030,
      "529": 3031,
      "530": 3032,
      "534": 3033,
      "535": 3034,
      "536": 3035,
      "537": 3036,
      "538": 3037,
      "539": 3038,
      "540": 3039,
      "545": 3040,
      "546": 3041,
      "547": 3042,
      "548": 3043,
      "549": 3044,
      "550": 3045,
      "556": 3046,
      "557": 3047,
      "558": 3048,
      "559": 3049,
      "610": 3050,
      "612": 3051,
      "613": 3052,
      "614": 3053,
      "615": 3054,
      "616": 3055,
      "617": 3056,
      "618": 3057,
      "619": 3058,
      "620": 3059,
      "623": 3060,
      "624": 3061,
      "625": 3062,
      "626": 3063,
      "627": 3064,
      "628": 3065,
      "629": 3066,
      "630": 3067,
      "634": 3068,
      "635": 3069,
      "636": 3070,
      "637": 3071,
      "638": 3072,
      "639": 3073,
      "640": 3074,
      "645": 3075,
      "646": 3076,
      "647": 3077,
      "648": 3078,
      "649": 3079,
      "650": 3080,
      "656": 3081,
      "657": 3082,
      "658": 3083,
      "659": 3084,
      "660": 3085,
      "667": 3086,
      "668": 3087,
      "669": 3088,
      "710": 3089,
      "712": 3090,
      "713": 3091,
      "714": 3092,
      "715": 3093,
      "716": 3094,
      "717": 3095,
      "718": 3096,
      "719": 3097,
      "720": 3098,
      "723": 3099,
      "724": 3100,
      "725": 3101,
      "726": 3102,
      "727": 3103,
      "728": 3104,
      "729": 3105,
      "730": 3106,
      "734": 3107,
      "735": 3108,
      "736": 3109,
      "737": 3110,
      "738": 3111,
      "739": 3112,
      "740": 3113,
      "745": 3114,
      "746": 3115,
      "747": 3116,
      "748": 3117,
      "749": 3118,
      "750": 3119,
      "756": 3120,
      "757": 3121,
      "758": 3122,
      "759": 3123,
      "760": 3124,
      "767": 3125,
      "768": 3126,
      "769": 3127,
      "770": 3128,
      "778": 3129,
      "779": 3130,
      "810": 3131,
      "812": 3132,
      "813": 3133,
      "814": 3134,
      "815": 3135,
      "816": 3136,
      "817": 3137,
      "818": 3138,
      "819": 3139,
      "820": 3140,
      "823": 3141,
      "824": 3142,
      "825": 3143,
      "826": 3144,
      "827": 3145,
      "828": 3146,
      "829": 3147,
      "830": 3148,
      "834": 3149,
      "835": 3150,
      "836": 3151,
      "837": 3152,
      "838": 3153,
      "839": 3154,
      "840": 3155,
      "845": 3156,
      "846": 3157,
      "847": 3158,
      "848": 3159,
      "849": 3160,
      "850": 3161,
      "856": 3162,
      "857": 3163,
      "858": 3164,
      "859": 3165,
      "860": 3166,
      "867": 3167,
      "868": 3168,
      "869": 3169,
      "870": 3170,
      "878": 3171,
      "879": 3172,
      "880": 3173,
      "889": 3174,
      "910": 3175,
      "912": 3176,
      "913": 3177,
      "914": 3178,
      "915": 3179,
      "916": 3180,
      "917": 3181,
      "918": 3182,
      "919": 3183,
      "920": 3184,
      "923": 3185,
      "924": 3186,
      "925": 3187,
      "926": 3188,
      "927": 3189,
      "928": 3190,
      "929": 3191,
      "930": 3192,
      "934": 3193,
      "935": 3194,
      "936": 3195,
      "937": 3196,
      "938": 3197,
      "939": 3198,
      "940": 3199,
      "945": 3200,
      "946": 3201,
      "947": 3202,
      "948": 3203,
      "949": 3204,
      "950": 3205,
      "956": 3206,
      "957": 3207,
      "958": 3208,
      "959": 3209,
      "960": 3210,
      "967": 3211,
      "968": 3212,
      "969": 3213,
      "970": 3214,
      "978": 3215,
      "979": 3216,
      "980": 3217,
      "989": 3218,
      "990": 3219,
      "그래": 3220,
      "나가": 3221,
      "더라": 3222,
      "들은": 3223,
      "물어": 3224,
      "번에": 3225,
      "세요": 3226,
      "수다": 3227,
      "아버": 3228,
      "제주": 3229,
      "하게": 3230,
      "xx": 3231,
      "거라": 3232,
      "거야": 3233,
      "나오": 3234,
      "맛있": 3235,
      "선생": 3236,
      "아무": 3237,
      "았어": 3238,
      "언니": 3239,
      "올라": 3240,
      "이라": 3241,
      "있었": 3242,
      "자기": 3243,
      "하나": 3244,
      "해야": 3245,
      "988": 3246,
      "겠다": 3247,
      "다음": 3248,
      "먹으": 3249,
      "면은": 3250,
      "시간": 3251,
      "어디": 3252,
      "어머니": 3253,
      "여기": 3254,
      "있어": 3255,
      "하다": 3256,
      "하니까": 3257,
      "해도": 3258,
      "했어": 3259,
      "111": 3260,
      "그렇게": 3261,
      "877": 3262,
      "977": 3263,
      "괜찮": 3264,
      "남자": 3265,
      "네가": 3266,
      "는디": 3267,
      "리가": 3268,
      "보다": 3269,
      "알아": 3270,
      "엄마": 3271,
      "었는데": 3272,
      "여자": 3273,
      "요일": 3274,
      "으네": 3275,
      "은데": 3276,
      "이가": 3277,
      "정도": 3278,
      "할머니": 3279,
      "해주": 3280,
      "221": 3281,
      "222": 3282,
      "아버지": 3283,
      "766": 3284,
      "866": 3285,
      "966": 3286,
      "것도": 3287,
      "겠어": 3288,
      "그랬": 3289,
      "나서": 3290,
      "님이": 3291,
      "돌아": 3292,
      "들도": 3293,
      "보고": 3294,
      "보면": 3295,
      "보니까": 3296,
      "봤어": 3297,
      "아빠": 3298,
      "어멍": 3299,
      "오빠": 3300,
      "이름": 3301,
      "이제": 3302,
      "재미": 3303,
      "학생": 3304,
      "331": 3305,
      "332": 3306,
      "333": 3307,
      "321": 3308,
      "들어가": 3309,
      "/(": 3310,
      "655": 3311,
      "755": 3312,
      "855": 3313,
      "876": 3314,
      "955": 3315,
      "976": 3316,
      "in": 3317,
      "가져": 3318,
      "경허": 3319,
      "고기": 3320,
      "공부": 3321,
      "그거": 3322,
      "그때": 3323,
      "기억": 3324,
      "내려": 3325,
      "누구": 3326,
      "더라고": 3327,
      "동생": 3328,
      "떨어": 3329,
      "리고": 3330,
      "마음": 3331,
      "버려": 3332,
      "부러": 3333,
      "살아": 3334,
      "아닌": 3335,
      "아방": 3336,
      "아프": 3337,
      "았는데": 3338,
      "애기": 3339,
      "어떵": 3340,
      "여행": 3341,
      "옛날": 3342,
      "은디": 3343,
      "이러": 3344,
      "이서": 3345,
      "재밌": 3346,
      "지는": 3347,
      "지만": 3348,
      "처음": 3349,
      "하기": 3350,
      "힘들": 3351,
      "441": 3352,
      "442": 3353,
      "443": 3354,
      "444": 3355,
      "제주도": 3356,
      "선생님": 3357,
      "))": 3358,
      ")/(": 3359,
      "가서": 3360,
      "가이": 3361,
      "갔다": 3362,
      "겅허": 3363,
      "그네": 3364,
      "그넹": 3365,
      "나는": 3366,
      "나라": 3367,
      "나면": 3368,
      "대로": 3369,
      "댕기": 3370,
      "드라": 3371,
      "들을": 3372,
      "들한테": 3373,
      "똑같": 3374,
      "렇게": 3375,
      "마다": 3376,
      "만원": 3377,
      "만큼": 3378,
      "말이": 3379,
      "말했": 3380,
      "머리": 3381,
      "먹을": 3382,
      "바이": 3383,
      "보내": 3384,
      "봐야": 3385,
      "사투": 3386,
      "소리": 3387,
      "스타": 3388,
      "습니다": 3389,
      "안되": 3390,
      "않아": 3391,
      "얼굴": 3392,
      "없어": 3393,
      "었던": 3394,
      "에요": 3395,
      "였어": 3396,
      "와서": 3397,
      "요즘": 3398,
      "우다": 3399,
      "음식": 3400,
      "이런": 3401,
      "이상": 3402,
      "일어": 3403,
      "있는": 3404,
      "전에": 3405,
      "전화": 3406,
      "지고": 3407,
      "지금": 3408,
      "쩌고": 3409,
      "할망": 3410,
      "해신디": 3411,
      "했었": 3412,
      "541": 3413,
      "542": 3414,
      "543": 3415,
      "431": 3416,
      "모르겠": 3417,
      "ing": 3418,
      "((": 3419,
      "ad": 3420,
      "co": 3421,
      "가는": 3422,
      "가루": 3423,
      "가야": 3424,
      "갔어": 3425,
      "갖고": 3426,
      "거나": 3427,
      "거지": 3428,
      "걱정": 3429,
      "건강": 3430,
      "건데": 3431,
      "건디": 3432,
      "걸로": 3433,
      "걸리": 3434,
      "것만": 3435,
      "것이": 3436,
      "결혼": 3437,
      "경우": 3438,
      "고등": 3439,
      "기다": 3440,
      "나고": 3441,
      "나중": 3442,
      "난이": 3443,
      "났어": 3444,
      "너무": 3445,
      "네는": 3446,
      "년에": 3447,
      "다는": 3448,
      "다이": 3449,
      "더니": 3450,
      "던데": 3451,
      "동네": 3452,
      "동안": 3453,
      "디다": 3454,
      "라서": 3455,
      "렸어": 3456,
      "마트": 3457,
      "만들": 3458,
      "만은": 3459,
      "말로": 3460,
      "말하": 3461,
      "맞아": 3462,
      "무서": 3463,
      "병원": 3464,
      "보이": 3465,
      "부모": 3466,
      "부지": 3467,
      "분이": 3468,
      "비싸": 3469,
      "빨리": 3470,
      "사이": 3471,
      "사장": 3472,
      "사주": 3473,
      "사진": 3474,
      "생기": 3475,
      "스크": 3476,
      "시켜": 3477,
      "시키": 3478,
      "신가": 3479,
      "신거": 3480,
      "신기": 3481,
      "아까": 3482,
      "아주": 3483,
      "아직": 3484,
      "야이": 3485,
      "어른": 3486,
      "어시": 3487,
      "왜냐": 3488,
      "운동": 3489,
      "워서": 3490,
      "은거": 3491,
      "이거": 3492,
      "이시": 3493,
      "이십": 3494,
      "이야": 3495,
      "있잖아": 3496,
      "자고": 3497,
      "조그": 3498,
      "지도": 3499,
      "진짜": 3500,
      "집에": 3501,
      "쪽으로": 3502,
      "추룩": 3503,
      "케이": 3504,
      "하난": 3505,
      "하루": 3506,
      "하여": 3507,
      "해가": 3508,
      "해부난": 3509,
      "헌디": 3510,
      "들어서": 3511,
      "들어오": 3512,
      "으면서": 3513,
      "는거야": 3514,
      "들이랑": 3515,
      "an": 3516,
      "ar": 3517,
      "au": 3518,
      "cl": 3519,
      "gh": 3520,
      "na": 3521,
      "re": 3522,
      "ss": 3523,
      "가고": 3524,
      "가까": 3525,
      "가락": 3526,
      "가르": 3527,
      "가면": 3528,
      "간에": 3529,
      "갔는데": 3530,
      "같아": 3531,
      "거리": 3532,
      "겠지": 3533,
      "겠다고": 3534,
      "겨울": 3535,
      "고마": 3536,
      "고사": 3537,
      "고양": 3538,
      "교수": 3539,
      "귀여": 3540,
      "귀찮": 3541,
      "그냉": 3542,
      "근데": 3543,
      "기가": 3544,
      "기도": 3545,
      "기름": 3546,
      "끼리": 3547,
      "나무": 3548,
      "나물": 3549,
      "나온": 3550,
      "나와": 3551,
      "나왔": 3552,
      "나이": 3553,
      "나신디": 3554,
      "남편": 3555,
      "냐고": 3556,
      "넷플": 3557,
      "노래": 3558,
      "놈의": 3559,
      "놓고": 3560,
      "놔두": 3561,
      "는지": 3562,
      "님은": 3563,
      "다녀": 3564,
      "다녔": 3565,
      "다른": 3566,
      "다행": 3567,
      "닮아": 3568,
      "당시": 3569,
      "당에": 3570,
      "당연": 3571,
      "당히": 3572,
      "대가": 3573,
      "대단": 3574,
      "대면": 3575,
      "대체": 3576,
      "대학": 3577,
      "데도": 3578,
      "데려": 3579,
      "돼지": 3580,
      "된다": 3581,
      "드는": 3582,
      "때는": 3583,
      "때문": 3584,
      "라도": 3585,
      "랐어": 3586,
      "럽게": 3587,
      "레비": 3588,
      "려서": 3589,
      "로그": 3590,
      "르방": 3591,
      "리스": 3592,
      "마시": 3593,
      "마씨": 3594,
      "마씸": 3595,
      "마지": 3596,
      "만에": 3597,
      "만한": 3598,
      "만히": 3599,
      "많아": 3600,
      "말고": 3601,
      "말해": 3602,
      "먹고": 3603,
      "먹는": 3604,
      "메기": 3605,
      "며느": 3606,
      "모가": 3607,
      "모양": 3608,
      "무리": 3609,
      "문제": 3610,
      "미안": 3611,
      "바닥": 3612,
      "바람": 3613,
      "바로": 3614,
      "밖에": 3615,
      "받아": 3616,
      "배고": 3617,
      "배우": 3618,
      "버린": 3619,
      "번째": 3620,
      "보난": 3621,
      "보는": 3622,
      "볼까": 3623,
      "부르": 3624,
      "부분": 3625,
      "분위": 3626,
      "비슷": 3627,
      "사는": 3628,
      "사무": 3629,
      "살았": 3630,
      "새끼": 3631,
      "생겼": 3632,
      "생활": 3633,
      "서방": 3634,
      "서울": 3635,
      "세상": 3636,
      "스러": 3637,
      "스트": 3638,
      "습니까": 3639,
      "시장": 3640,
      "싫어": 3641,
      "심이": 3642,
      "씨가": 3643,
      "아가": 3644,
      "아닙": 3645,
      "아저": 3646,
      "아지": 3647,
      "아침": 3648,
      "아파": 3649,
      "알았": 3650,
      "야지": 3651,
      "어가": 3652,
      "어나": 3653,
      "어려": 3654,
      "어린": 3655,
      "어제": 3656,
      "어지": 3657,
      "언제": 3658,
      "에어": 3659,
      "여서": 3660,
      "여섯": 3661,
      "연락": 3662,
      "영화": 3663,
      "예요": 3664,
      "오늘": 3665,
      "오라": 3666,
      "오십": 3667,
      "우스": 3668,
      "움직": 3669,
      "육지": 3670,
      "으러": 3671,
      "을거": 3672,
      "을까": 3673,
      "이랑": 3674,
      "이래": 3675,
      "이번": 3676,
      "이렇게": 3677,
      "인가": 3678,
      "인데": 3679,
      "인이": 3680,
      "일이": 3681,
      "일주": 3682,
      "있네": 3683,
      "자리": 3684,
      "장고": 3685,
      "저것": 3686,
      "저기": 3687,
      "저께": 3688,
      "조금": 3689,
      "종일": 3690,
      "줘야": 3691,
      "지난": 3692,
      "지어": 3693,
      "집이": 3694,
      "짜리": 3695,
      "쪽에": 3696,
      "처럼": 3697,
      "천원": 3698,
      "초등": 3699,
      "카부": 3700,
      "크라": 3701,
      "키우": 3702,
      "필라": 3703,
      "필요": 3704,
      "하맨": 3705,
      "하믄": 3706,
      "하는데": 3707,
      "하잖아": 3708,
      "하더라고": 3709,
      "학년": 3710,
      "한다": 3711,
      "한데": 3712,
      "한번": 3713,
      "해난": 3714,
      "해가지고": 3715,
      "핸드": 3716,
      "했던": 3717,
      "했는데": 3718,
      "허고": 3719,
      "허난": 3720,
      "혼자": 3721,
      "화장": 3722,
      "생각해": 3723,
      "하는거": 3724,
      "었어요": 3725,
      "버리면": 3726,
      "버리니까": 3727,
      "번에도": 3728,
      "요일날": 3729,
      "돌아가": 3730,
      "사투리": 3731,
      "com": 3732,
      ".)/(": 3733,
      "lau": 3734,
      "os": 3735,
      "▁((": 3736,
      "가게": 3737,
      "가격": 3738,
      "가기": 3739,
      "가끔": 3740,
      "가난": 3741,
      "가다": 3742,
      "가도": 3743,
      "가멍": 3744,
      "가믄": 3745,
      "가민": 3746,
      "가슴": 3747,
      "가니까": 3748,
      "가면서": 3749,
      "간다": 3750,
      "간단": 3751,
      "간호": 3752,
      "갔지": 3753,
      "갔다가": 3754,
      "같은": 3755,
      "같이": 3756,
      "개가": 3757,
      "개를": 3758,
      "개월": 3759,
      "거고": 3760,
      "거난": 3761,
      "거는": 3762,
      "거니": 3763,
      "거랜": 3764,
      "거짓": 3765,
      "거라고": 3766,
      "건가": 3767,
      "건지": 3768,
      "검사": 3769,
      "검색": 3770,
      "검진": 3771,
      "것들": 3772,
      "것을": 3773,
      "게난": 3774,
      "게메": 3775,
      "게임": 3776,
      "겠네": 3777,
      "겨서": 3778,
      "결국": 3779,
      "고구": 3780,
      "고라": 3781,
      "고춧": 3782,
      "공짜": 3783,
      "과수": 3784,
      "관광": 3785,
      "굉장": 3786,
      "교육": 3787,
      "구니": 3788,
      "구멍": 3789,
      "구요": 3790,
      "국민": 3791,
      "국수": 3792,
      "국어": 3793,
      "국인": 3794,
      "군데": 3795,
      "궁금": 3796,
      "그나": 3797,
      "그냥": 3798,
      "그디": 3799,
      "그만": 3800,
      "그자": 3801,
      "그다음": 3802,
      "근처": 3803,
      "기숙": 3804,
      "기지": 3805,
      "길래": 3806,
      "김치": 3807,
      "깨끗": 3808,
      "꺼번에": 3809,
      "꾸로": 3810,
      "꾸준": 3811,
      "끄러": 3812,
      "나게": 3813,
      "나난": 3814,
      "나도": 3815,
      "나머": 3816,
      "나쁘": 3817,
      "나지": 3818,
      "나니까": 3819,
      "난다": 3820,
      "날에": 3821,
      "날은": 3822,
      "났는데": 3823,
      "내가": 3824,
      "내고": 3825,
      "내는": 3826,
      "내서": 3827,
      "내일": 3828,
      "냄새": 3829,
      "냉동": 3830,
      "냉장고": 3831,
      "냐면": 3832,
      "너네": 3833,
      "노트": 3834,
      "놓은": 3835,
      "놓으면": 3836,
      "놔서": 3837,
      "놨어": 3838,
      "누게": 3839,
      "누군": 3840,
      "느낌": 3841,
      "니가": 3842,
      "다르": 3843,
      "다리": 3844,
      "다섯": 3845,
      "달라": 3846,
      "달에": 3847,
      "달라고": 3848,
      "대기": 3849,
      "대통": 3850,
      "대회": 3851,
      "대학교": 3852,
      "던디": 3853,
      "델링": 3854,
      "도로": 3855,
      "도망": 3856,
      "도시": 3857,
      "도와": 3858,
      "도움": 3859,
      "독서": 3860,
      "동문": 3861,
      "동산": 3862,
      "동영": 3863,
      "돼서": 3864,
      "됐어": 3865,
      "되고": 3866,
      "되는": 3867,
      "되면": 3868,
      "되서": 3869,
      "되어": 3870,
      "되지": 3871,
      "되니까": 3872,
      "된다고": 3873,
      "두고": 3874,
      "뒤집": 3875,
      "드라고": 3876,
      "들고": 3877,
      "따뜻": 3878,
      "때도": 3879,
      "땜에": 3880,
      "떡볶": 3881,
      "라는": 3882,
      "라리": 3883,
      "라면": 3884,
      "라스": 3885,
      "라이": 3886,
      "라인": 3887,
      "랑이": 3888,
      "래도": 3889,
      "랜드": 3890,
      "러서": 3891,
      "레스": 3892,
      "렸을": 3893,
      "로나": 3894,
      "로운": 3895,
      "롯데": 3896,
      "리는": 3897,
      "리러": 3898,
      "리모": 3899,
      "마는": 3900,
      "마라": 3901,
      "마리": 3902,
      "마스": 3903,
      "마을": 3904,
      "마자": 3905,
      "마찬": 3906,
      "만약": 3907,
      "만하면": 3908,
      "많이": 3909,
      "말도": 3910,
      "말아": 3911,
      "말에": 3912,
      "말은": 3913,
      "말을": 3914,
      "맞춰": 3915,
      "맞수다": 3916,
      "먹언": 3917,
      "먹었": 3918,
      "먹이": 3919,
      "먹으면": 3920,
      "메라": 3921,
      "면허": 3922,
      "명이": 3923,
      "모슬": 3924,
      "목욕": 3925,
      "몰라": 3926,
      "몰랐": 3927,
      "몸무": 3928,
      "못하": 3929,
      "무시": 3930,
      "무원": 3931,
      "물도": 3932,
      "물에": 3933,
      "물을": 3934,
      "물이": 3935,
      "미역": 3936,
      "미용": 3937,
      "바다": 3938,
      "바닷": 3939,
      "바지": 3940,
      "반에": 3941,
      "받고": 3942,
      "방법": 3943,
      "방에": 3944,
      "밭에": 3945,
      "배추": 3946,
      "버거": 3947,
      "버렸": 3948,
      "버릴": 3949,
      "버렸어": 3950,
      "번호": 3951,
      "벌레": 3952,
      "베이": 3953,
      "베트": 3954,
      "별로": 3955,
      "보게": 3956,
      "보냈": 3957,
      "보니": 3958,
      "보단": 3959,
      "보라": 3960,
      "보리": 3961,
      "보믄": 3962,
      "보민": 3963,
      "보여": 3964,
      "보일": 3965,
      "보자": 3966,
      "보젠": 3967,
      "보지": 3968,
      "보험": 3969,
      "보면서": 3970,
      "보려고": 3971,
      "보니깐": 3972,
      "보세요": 3973,
      "봅서": 3974,
      "봐도": 3975,
      "봐봐": 3976,
      "봐서": 3977,
      "봐신디": 3978,
      "봤자": 3979,
      "봤는데": 3980,
      "부가": 3981,
      "부로": 3982,
      "분명": 3983,
      "불고": 3984,
      "비가": 3985,
      "비행": 3986,
      "빠이": 3987,
      "쁘게": 3988,
      "사가": 3989,
      "사고": 3990,
      "사라": 3991,
      "사모": 3992,
      "사실": 3993,
      "사지": 3994,
      "살이": 3995,
      "삼십": 3996,
      "삼촌": 3997,
      "상관": 3998,
      "상태": 3999,
      "상황": 4000,
      "새기": 4001,
      "새벽": 4002,
      "색깔": 4003,
      "생이라": 4004,
      "서관": 4005,
      "서귀": 4006,
      "서도": 4007,
      "성격": 4008,
      "소개": 4009,
      "속에": 4010,
      "솔직": 4011,
      "수가": 4012,
      "수는": 4013,
      "수도": 4014,
      "수술": 4015,
      "수학": 4016,
      "스로": 4017,
      "스럽게": 4018,
      "시기": 4019,
      "시누": 4020,
      "시대": 4021,
      "시리": 4022,
      "시에": 4023,
      "시험": 4024,
      "시어머니": 4025,
      "식구": 4026,
      "식으로": 4027,
      "신고": 4028,
      "신이": 4029,
      "실에": 4030,
      "심히": 4031,
      "십이": 4032,
      "십일": 4033,
      "싶어": 4034,
      "쓰레": 4035,
      "아기": 4036,
      "아노": 4037,
      "아들": 4038,
      "아라": 4039,
      "아르": 4040,
      "아리": 4041,
      "아맹": 4042,
      "아줌": 4043,
      "아홉": 4044,
      "안에": 4045,
      "안해": 4046,
      "않았": 4047,
      "알바": 4048,
      "어느": 4049,
      "어도": 4050,
      "어떡": 4051,
      "어떤": 4052,
      "어떻": 4053,
      "어렵": 4054,
      "어르": 4055,
      "어리": 4056,
      "어릴": 4057,
      "어머": 4058,
      "어이": 4059,
      "어쨌": 4060,
      "어쩌": 4061,
      "어쩔": 4062,
      "어신디": 4063,
      "어쩌고": 4064,
      "얼마": 4065,
      "엄청": 4066,
      "없는": 4067,
      "없이": 4068,
      "엉덩": 4069,
      "에스": 4070,
      "에이": 4071,
      "에프": 4072,
      "여덟": 4073,
      "여러": 4074,
      "여름": 4075,
      "연예": 4076,
      "열두": 4077,
      "였는데": 4078,
      "예전": 4079,
      "오고": 4080,
      "오는": 4081,
      "오래": 4082,
      "오랜": 4083,
      "오름": 4084,
      "오면": 4085,
      "오백": 4086,
      "오일": 4087,
      "오지": 4088,
      "오징": 4089,
      "오토": 4090,
      "오후": 4091,
      "오니까": 4092,
      "오메기": 4093,
      "온거": 4094,
      "올레": 4095,
      "올해": 4096,
      "와도": 4097,
      "와이": 4098,
      "와신디": 4099,
      "완전": 4100,
      "왔다": 4101,
      "왔어": 4102,
      "왔는데": 4103,
      "요새": 4104,
      "우꽈": 4105,
      "우나": 4106,
      "우울": 4107,
      "운데": 4108,
      "원도": 4109,
      "원래": 4110,
      "원에": 4111,
      "원을": 4112,
      "원이": 4113,
      "유명": 4114,
      "유치": 4115,
      "유투": 4116,
      "육십": 4117,
      "으니깐": 4118,
      "이것": 4119,
      "이게": 4120,
      "이네": 4121,
      "이다": 4122,
      "이따": 4123,
      "이랜": 4124,
      "이랬": 4125,
      "이르": 4126,
      "이만": 4127,
      "이버": 4128,
      "이어": 4129,
      "이유": 4130,
      "이주": 4131,
      "이해": 4132,
      "이후": 4133,
      "이신디": 4134,
      "이라고": 4135,
      "인디": 4136,
      "인지": 4137,
      "인터": 4138,
      "일단": 4139,
      "일본": 4140,
      "일에": 4141,
      "일을": 4142,
      "있게": 4143,
      "있고": 4144,
      "있다": 4145,
      "있지": 4146,
      "있는데": 4147,
      "있으면": 4148,
      "있는거": 4149,
      "있어요": 4150,
      "있으니까": 4151,
      "자가": 4152,
      "자격": 4153,
      "자는": 4154,
      "자동": 4155,
      "자식": 4156,
      "자연": 4157,
      "자전": 4158,
      "자체": 4159,
      "작년": 4160,
      "잠깐": 4161,
      "저녁": 4162,
      "저히": 4163,
      "저쩌고": 4164,
      "적이": 4165,
      "정이": 4166,
      "정확": 4167,
      "제가": 4168,
      "제로": 4169,
      "조건": 4170,
      "조심": 4171,
      "조용": 4172,
      "좋았": 4173,
      "좋은": 4174,
      "주고": 4175,
      "주기": 4176,
      "주는": 4177,
      "주라": 4178,
      "주랜": 4179,
      "주로": 4180,
      "주면": 4181,
      "주변": 4182,
      "주에": 4183,
      "주인": 4184,
      "주지": 4185,
      "주니까": 4186,
      "주라고": 4187,
      "주세요": 4188,
      "준다고": 4189,
      "줄게": 4190,
      "중에": 4191,
      "중요": 4192,
      "줘도": 4193,
      "줘서": 4194,
      "줬어": 4195,
      "줬는데": 4196,
      "지가": 4197,
      "지로": 4198,
      "지면": 4199,
      "지하": 4200,
      "지나가": 4201,
      "집도": 4202,
      "집은": 4203,
      "집을": 4204,
      "집에서": 4205,
      "짜증": 4206,
      "차가": 4207,
      "차피": 4208,
      "천천": 4209,
      "초에": 4210,
      "촬영": 4211,
      "최근": 4212,
      "추천": 4213,
      "충분": 4214,
      "치고": 4215,
      "치는": 4216,
      "치료": 4217,
      "치면": 4218,
      "카드": 4219,
      "카오": 4220,
      "캐릭": 4221,
      "쿠다": 4222,
      "크리스": 4223,
      "키로": 4224,
      "타고": 4225,
      "타민": 4226,
      "태어": 4227,
      "테이": 4228,
      "텐데": 4229,
      "튜브": 4230,
      "파리": 4231,
      "페인": 4232,
      "편안": 4233,
      "편의": 4234,
      "표준": 4235,
      "퓨터": 4236,
      "프랑": 4237,
      "프로": 4238,
      "하긴": 4239,
      "하냐": 4240,
      "하네": 4241,
      "하니": 4242,
      "하당": 4243,
      "하라": 4244,
      "하래": 4245,
      "하랜": 4246,
      "하러": 4247,
      "하멍": 4248,
      "하민": 4249,
      "하영": 4250,
      "하자": 4251,
      "하잰": 4252,
      "하젠": 4253,
      "하라고": 4254,
      "하다가": 4255,
      "하거든": 4256,
      "하면서": 4257,
      "하려고": 4258,
      "하니깐": 4259,
      "하더라": 4260,
      "하세요": 4261,
      "하겠다": 4262,
      "하르방": 4263,
      "하우스": 4264,
      "학원": 4265,
      "한거": 4266,
      "한게": 4267,
      "한대": 4268,
      "한댄": 4269,
      "한디": 4270,
      "한라": 4271,
      "한마": 4272,
      "한다고": 4273,
      "한거라": 4274,
      "한거야": 4275,
      "할거": 4276,
      "할까": 4277,
      "할꺼": 4278,
      "할때": 4279,
      "할려고": 4280,
      "할거야": 4281,
      "할아버지": 4282,
      "합니까": 4283,
      "합니다": 4284,
      "해라": 4285,
      "해여": 4286,
      "해영": 4287,
      "해외": 4288,
      "해요": 4289,
      "해져": 4290,
      "해지": 4291,
      "해그네": 4292,
      "해그넹": 4293,
      "햄서": 4294,
      "햄수다": 4295,
      "했고": 4296,
      "했나": 4297,
      "했네": 4298,
      "했다": 4299,
      "했대": 4300,
      "했댄": 4301,
      "했언": 4302,
      "했을": 4303,
      "했져": 4304,
      "했지": 4305,
      "했다고": 4306,
      "했잖아": 4307,
      "했으면": 4308,
      "했었어": 4309,
      "했다가": 4310,
      "했거든": 4311,
      "했어요": 4312,
      "했주게": 4313,
      "했구나": 4314,
      "했었는데": 4315,
      "행으네": 4316,
      "허게": 4317,
      "허는": 4318,
      "허멍": 4319,
      "허면": 4320,
      "허믄": 4321,
      "허민": 4322,
      "허여": 4323,
      "허연": 4324,
      "허영": 4325,
      "허지": 4326,
      "헌거": 4327,
      "형이": 4328,
      "혹시": 4329,
      "화가": 4330,
      "확실": 4331,
      "확진": 4332,
      "회사": 4333,
      "히려": 4334,
      "아니야": 4335,
      "가지구": 4336,
      "하는게": 4337,
      "하는디": 4338,
      "사람들": 4339,
      "사람이": 4340,
      "아이가": 4341,
      "아이고": 4342,
      "아이패": 4343,
      "그러니까": 4344,
      "버리고": 4345,
      "버리는": 4346,
      "하면은": 4347,
      "하지만": 4348,
      "다니고": 4349,
      "그래도": 4350,
      "그래서": 4351,
      "xxx": 4352,
      "아무렇": 4353,
      "해야지": 4354,
      "보다는": 4355,
      "해주고": 4356,
      "해주는": 4357,
      "버려서": 4358,
      "바이트": 4359,
      "add": 4360,
      "다이어": 4361,
      "부지런": 4362,
      "스크림": 4363,
      "조그마": 4364,
      "any": 4365,
      "aring": 4366,
      "cle": 4367,
      "ghing": 4368,
      "nam": 4369,
      "ress": 4370,
      "넷플릭": 4371,
      "때문에": 4372,
      "마지막": 4373,
      "어린이": 4374,
      "필라테": 4375,
      "핸드폰": 4376,
      "comp": 4377,
      ")(": 4378,
      "-(": 4379,
      ".#": 4380,
      ".)": 4381,
      ".{": 4382,
      ".))": 4383,
      "211": 4384,
      "2111": 4385,
      "322": 4386,
      "311": 4387,
      "3111": 4388,
      "3221": 4389,
      "3222": 4390,
      "433": 4391,
      "422": 4392,
      "411": 4393,
      "432": 4394,
      "421": 4395,
      "4111": 4396,
      "4221": 4397,
      "4222": 4398,
      "4331": 4399,
      "4332": 4400,
      "4333": 4401,
      "4321": 4402,
      "544": 4403,
      "533": 4404,
      "522": 4405,
      "511": 4406,
      "532": 4407,
      "521": 4408,
      "5111": 4409,
      "5221": 4410,
      "5222": 4411,
      "5331": 4412,
      "5332": 4413,
      "5333": 4414,
      "5321": 4415,
      "5441": 4416,
      "5442": 4417,
      "5443": 4418,
      "5444": 4419,
      "644": 4420,
      "633": 4421,
      "622": 4422,
      "611": 4423,
      "654": 4424,
      "632": 4425,
      "643": 4426,
      "621": 4427,
      "6111": 4428,
      "6221": 4429,
      "6222": 4430,
      "6331": 4431,
      "6332": 4432,
      "6333": 4433,
      "6321": 4434,
      "6441": 4435,
      "6442": 4436,
      "6443": 4437,
      "6444": 4438,
      "6541": 4439,
      "6542": 4440,
      "6543": 4441,
      "6431": 4442,
      "744": 4443,
      "733": 4444,
      "722": 4445,
      "711": 4446,
      "754": 4447,
      "732": 4448,
      "743": 4449,
      "721": 4450,
      "7111": 4451,
      "7221": 4452,
      "7222": 4453,
      "7331": 4454,
      "7332": 4455,
      "7333": 4456,
      "7321": 4457,
      "7441": 4458,
      "7442": 4459,
      "7443": 4460,
      "7444": 4461,
      "7541": 4462,
      "7542": 4463,
      "7543": 4464,
      "7431": 4465,
      "844": 4466,
      "833": 4467,
      "822": 4468,
      "811": 4469,
      "854": 4470,
      "832": 4471,
      "843": 4472,
      "821": 4473,
      "831": 4474,
      "8111": 4475,
      "8221": 4476,
      "8222": 4477,
      "8331": 4478,
      "8332": 4479,
      "8333": 4480,
      "8321": 4481,
      "8441": 4482,
      "8442": 4483,
      "8443": 4484,
      "8444": 4485,
      "8541": 4486,
      "8542": 4487,
      "8543": 4488,
      "8431": 4489,
      "944": 4490,
      "933": 4491,
      "922": 4492,
      "911": 4493,
      "954": 4494,
      "932": 4495,
      "943": 4496,
      "921": 4497,
      "931": 4498,
      "9111": 4499,
      "9221": 4500,
      "9222": 4501,
      "9331": 4502,
      "9332": 4503,
      "9333": 4504,
      "9321": 4505,
      "9441": 4506,
      "9442": 4507,
      "9443": 4508,
      "9444": 4509,
      "9541": 4510,
      "9542": 4511,
      "9543": 4512,
      "9431": 4513,
      "?)": 4514,
      "?{": 4515,
      "?))": 4516,
      "?)/(": 4517,
      "XX": 4518,
      "bos": 4519,
      "eos": 4520,
      "nk": 4521,
      "pad": 4522,
      "unk": 4523,
      "▁#": 4524,
      "▁&": 4525,
      "▁(": 4526,
      "▁-": 4527,
      "▁.": 4528,
      "▁@": 4529,
      "▁{": 4530,
      "가가": 4531,
      "가긴": 4532,
      "가깝": 4533,
      "가나": 4534,
      "가네": 4535,
      "가능": 4536,
      "가당": 4537,
      "가득": 4538,
      "가라": 4539,
      "가랜": 4540,
      "가려": 4541,
      "가리": 4542,
      "가마": 4543,
      "가만": 4544,
      "가방": 4545,
      "가보": 4546,
      "가본": 4547,
      "가봐": 4548,
      "가봔": 4549,
      "가봤": 4550,
      "가사": 4551,
      "가스": 4552,
      "가시": 4553,
      "가에": 4554,
      "가요": 4555,
      "가위": 4556,
      "가을": 4557,
      "가인": 4558,
      "가입": 4559,
      "가자": 4560,
      "가장": 4561,
      "가잰": 4562,
      "가정": 4563,
      "가젠": 4564,
      "가졍": 4565,
      "가족": 4566,
      "가진": 4567,
      "가질": 4568,
      "가켄": 4569,
      "가는데": 4570,
      "가잖아": 4571,
      "가신디": 4572,
      "가라고": 4573,
      "가다가": 4574,
      "가가지고": 4575,
      "가는거": 4576,
      "가려고": 4577,
      "가부난": 4578,
      "가니깐": 4579,
      "가세요": 4580,
      "가면은": 4581,
      "가는디": 4582,
      "가이가": 4583,
      "가보고": 4584,
      "가보면": 4585,
      "가보니까": 4586,
      "가봤어": 4587,
      "가그네": 4588,
      "가그넹": 4589,
      "가봐야": 4590,
      "가자고": 4591,
      "가겠다고": 4592,
      "가그냉": 4593,
      "가만히": 4594,
      "가운데": 4595,
      "각시": 4596,
      "각자": 4597,
      "간거": 4598,
      "간대": 4599,
      "간댄": 4600,
      "간병": 4601,
      "간식": 4602,
      "간이": 4603,
      "간장": 4604,
      "간지": 4605,
      "간다고": 4606,
      "갈거": 4607,
      "갈까": 4608,
      "갈꺼": 4609,
      "갈때": 4610,
      "갈라": 4611,
      "갈래": 4612,
      "갈비": 4613,
      "갈아": 4614,
      "갈치": 4615,
      "갈려고": 4616,
      "감귤": 4617,
      "감기": 4618,
      "감독": 4619,
      "감사": 4620,
      "감을": 4621,
      "감이": 4622,
      "감자": 4623,
      "감저": 4624,
      "갑자기": 4625,
      "값이": 4626,
      "갔네": 4627,
      "갔당": 4628,
      "갔댄": 4629,
      "갔던": 4630,
      "갔언": 4631,
      "갔을": 4632,
      "갔다고": 4633,
      "갔잖아": 4634,
      "갔었어": 4635,
      "갔거든": 4636,
      "갔어요": 4637,
      "갔었는데": 4638,
      "강아": 4639,
      "강의": 4640,
      "강으네": 4641,
      "강아지": 4642,
      "강원도": 4643,
      "갖다": 4644,
      "같고": 4645,
      "같긴": 4646,
      "같다": 4647,
      "같애": 4648,
      "같지": 4649,
      "같다고": 4650,
      "같으면": 4651,
      "같아서": 4652,
      "같더라": 4653,
      "같은데": 4654,
      "같은디": 4655,
      "같던데": 4656,
      "같은거": 4657,
      "같기도": 4658,
      "개념": 4659,
      "개는": 4660,
      "개도": 4661,
      "개발": 4662,
      "개씩": 4663,
      "개인": 4664,
      "걔가": 4665,
      "걔네": 4666,
      "걔는": 4667,
      "걔도": 4668,
      "걔랑": 4669,
      "걔한테": 4670,
      "걔네가": 4671,
      "걔네는": 4672,
      "거긴": 4673,
      "거냐": 4674,
      "거네": 4675,
      "거다": 4676,
      "거랑": 4677,
      "거래": 4678,
      "거를": 4679,
      "거면": 4680,
      "거믄": 4681,
      "거에": 4682,
      "거여": 4683,
      "거연": 4684,
      "거운": 4685,
      "거의": 4686,
      "거주": 4687,
      "거니까": 4688,
      "거잖아": 4689,
      "거거든": 4690,
      "거주게": 4691,
      "거구나": 4692,
      "거에요": 4693,
      "거였어": 4694,
      "거우다": 4695,
      "거난이": 4696,
      "거예요": 4697,
      "거꾸로": 4698,
      "건너": 4699,
      "건드": 4700,
      "건들": 4701,
      "건물": 4702,
      "건조": 4703,
      "걷고": 4704,
      "걷는": 4705,
      "걷어": 4706,
      "걸랑": 4707,
      "걸려": 4708,
      "걸련": 4709,
      "걸렸": 4710,
      "걸린": 4711,
      "걸릴": 4712,
      "걸어": 4713,
      "걸엉": 4714,
      "걸이": 4715,
      "걸어서": 4716,
      "걸리고": 4717,
      "걸렸어": 4718,
      "걸려서": 4719,
      "걸어가": 4720,
      "검은": 4721,
      "검정": 4722,
      "검질": 4723,
      "겁나": 4724,
      "것은": 4725,
      "것들이": 4726,
      "것들은": 4727,
      "것보다": 4728,
      "것들도": 4729,
      "것들을": 4730,
      "것처럼": 4731,
      "겅하": 4732,
      "겅한": 4733,
      "겅해": 4734,
      "겅핸": 4735,
      "겅햄": 4736,
      "겅행": 4737,
      "겅헌": 4738,
      "겅하고": 4739,
      "겅하면": 4740,
      "겅해서": 4741,
      "겅하니까": 4742,
      "겅해도": 4743,
      "겅해신디": 4744,
      "겅하난": 4745,
      "겅해부난": 4746,
      "겅헌디": 4747,
      "겅하믄": 4748,
      "겅해가지고": 4749,
      "게게": 4750,
      "게도": 4751,
      "게매": 4752,
      "게믄": 4753,
      "게민": 4754,
      "게요": 4755,
      "게이": 4756,
      "게니까": 4757,
      "게난이": 4758,
      "게만은": 4759,
      "겐디": 4760,
      "겠냐": 4761,
      "겠는": 4762,
      "겠니": 4763,
      "겠대": 4764,
      "겠는데": 4765,
      "겠어요": 4766,
      "겠구나": 4767,
      "겠더라": 4768,
      "겠지만": 4769,
      "겠습니다": 4770,
      "겨난": 4771,
      "겨우": 4772,
      "격리": 4773,
      "견디": 4774,
      "결과": 4775,
      "결정": 4776,
      "겹살": 4777,
      "겼어": 4778,
      "경기": 4779,
      "경이": 4780,
      "경제": 4781,
      "경주": 4782,
      "경찰": 4783,
      "경하": 4784,
      "경해": 4785,
      "경핸": 4786,
      "경행": 4787,
      "경헌": 4788,
      "경험": 4789,
      "경해도": 4790,
      "경해신디": 4791,
      "경하난": 4792,
      "경해부난": 4793,
      "경헌디": 4794,
      "경해난": 4795,
      "계가": 4796,
      "계단": 4797,
      "계란": 4798,
      "계산": 4799,
      "계속": 4800,
      "계약": 4801,
      "계절": 4802,
      "계획": 4803,
      "고급": 4804,
      "고람": 4805,
      "고랐": 4806,
      "고루": 4807,
      "고르": 4808,
      "고를": 4809,
      "고릅": 4810,
      "고만": 4811,
      "고맙": 4812,
      "고모": 4813,
      "고무": 4814,
      "고민": 4815,
      "고생": 4816,
      "고소": 4817,
      "고와": 4818,
      "고운": 4819,
      "고이": 4820,
      "고장": 4821,
      "고쳐": 4822,
      "고추": 4823,
      "고치": 4824,
      "고향": 4825,
      "고만히": 4826,
      "고모가": 4827,
      "곧는": 4828,
      "골라": 4829,
      "골목": 4830,
      "골아": 4831,
      "골암": 4832,
      "골았": 4833,
      "골프": 4834,
      "곱게": 4835,
      "곱닥": 4836,
      "곳에": 4837,
      "곳이": 4838,
      "공기": 4839,
      "공동": 4840,
      "공사": 4841,
      "공연": 4842,
      "공장": 4843,
      "공항": 4844,
      "공무원": 4845,
      "과목": 4846,
      "과외": 4847,
      "과일": 4848,
      "과자": 4849,
      "과제": 4850,
      "과학": 4851,
      "관계": 4852,
      "관련": 4853,
      "관리": 4854,
      "관심": 4855,
      "관에": 4856,
      "관이": 4857,
      "관심이": 4858,
      "광고": 4859,
      "광주": 4860,
      "괜춘": 4861,
      "괜히": 4862,
      "괴기": 4863,
      "괴롭": 4864,
      "교복": 4865,
      "교장": 4866,
      "교통": 4867,
      "교회": 4868,
      "구가": 4869,
      "구경": 4870,
      "구리": 4871,
      "구석": 4872,
      "구십": 4873,
      "구워": 4874,
      "구해": 4875,
      "국가": 4876,
      "국내": 4877,
      "국물": 4878,
      "국에": 4879,
      "국이": 4880,
      "군대": 4881,
      "군인": 4882,
      "굳이": 4883,
      "귀신": 4884,
      "귀엽": 4885,
      "그건": 4886,
      "그걸": 4887,
      "그것": 4888,
      "그게": 4889,
      "그기": 4890,
      "그난": 4891,
      "그날": 4892,
      "그내": 4893,
      "그넨": 4894,
      "그땐": 4895,
      "그라": 4896,
      "그랜": 4897,
      "그램": 4898,
      "그럴": 4899,
      "그럼": 4900,
      "그려": 4901,
      "그릇": 4902,
      "그리": 4903,
      "그림": 4904,
      "그믄": 4905,
      "그분": 4906,
      "그저": 4907,
      "그전": 4908,
      "그지": 4909,
      "그쪽": 4910,
      "그축": 4911,
      "그치": 4912,
      "그니까": 4913,
      "그사람": 4914,
      "그아이": 4915,
      "그니깐": 4916,
      "그거라": 4917,
      "그거야": 4918,
      "그정도": 4919,
      "그것도": 4920,
      "그리고": 4921,
      "그대로": 4922,
      "그만큼": 4923,
      "그전에": 4924,
      "그걸로": 4925,
      "그것만": 4926,
      "그것이": 4927,
      "그동안": 4928,
      "그분이": 4929,
      "그쪽으로": 4930,
      "그추룩": 4931,
      "그저께": 4932,
      "그쪽에": 4933,
      "그것을": 4934,
      "근디": 4935,
      "근무": 4936,
      "근육": 4937,
      "글락": 4938,
      "글로": 4939,
      "글쎄": 4940,
      "금방": 4941,
      "금액": 4942,
      "금을": 4943,
      "금이": 4944,
      "금요일": 4945,
      "급식": 4946,
      "기간": 4947,
      "기계": 4948,
      "기고": 4949,
      "기냥": 4950,
      "기네": 4951,
      "기는": 4952,
      "기능": 4953,
      "기대": 4954,
      "기로": 4955,
      "기를": 4956,
      "기만": 4957,
      "기면": 4958,
      "기본": 4959,
      "기분": 4960,
      "기사": 4961,
      "기술": 4962,
      "기에": 4963,
      "기자": 4964,
      "기저": 4965,
      "기준": 4966,
      "기회": 4967,
      "기주게": 4968,
      "기구나": 4969,
      "기분이": 4970,
      "긴장": 4971,
      "길게": 4972,
      "길어": 4973,
      "길에": 4974,
      "길을": 4975,
      "길이": 4976,
      "길거리": 4977,
      "김녕": 4978,
      "김밥": 4979,
      "김에": 4980,
      "김장": 4981,
      "까먹": 4982,
      "까봐": 4983,
      "까요": 4984,
      "까진": 4985,
      "깔끔": 4986,
      "깔아": 4987,
      "깜짝": 4988,
      "꺼내": 4989,
      "꺼라": 4990,
      "꺼야": 4991,
      "꺾어": 4992,
      "껀가": 4993,
      "껀디": 4994,
      "껍질": 4995,
      "꿈을": 4996,
      "꿈이": 4997,
      "끊어": 4998,
      "끌고": 4999,
      "끌락": 5000,
      "끌어": 5001,
      "끓여": 5002,
      "끓여서": 5003,
      "끝나": 5004,
      "끝난": 5005,
      "끝날": 5006,
      "끝났": 5007,
      "끝낭": 5008,
      "끝내": 5009,
      "끝에": 5010,
      "끝까지": 5011,
      "끝나서": 5012,
      "끝나면": 5013,
      "끝나고": 5014,
      "끝났어": 5015,
      "끼고": 5016,
      "나간": 5017,
      "나갈": 5018,
      "나갔": 5019,
      "나강": 5020,
      "나나": 5021,
      "나네": 5022,
      "나누": 5023,
      "나눠": 5024,
      "나다": 5025,
      "나랑": 5026,
      "나를": 5027,
      "나름": 5028,
      "나만": 5029,
      "나봐": 5030,
      "나빠": 5031,
      "나쁜": 5032,
      "나사": 5033,
      "나아": 5034,
      "나영": 5035,
      "나올": 5036,
      "나완": 5037,
      "나왐": 5038,
      "나왕": 5039,
      "나요": 5040,
      "나은": 5041,
      "나을": 5042,
      "나의": 5043,
      "나타": 5044,
      "나는데": 5045,
      "나가지": 5046,
      "나한테": 5047,
      "나가지고": 5048,
      "나하고": 5049,
      "나보다": 5050,
      "나이가": 5051,
      "나보고": 5052,
      "나와서": 5053,
      "나갔어": 5054,
      "낚시": 5055,
      "난거": 5056,
      "난게": 5057,
      "난리": 5058,
      "난에": 5059,
      "난예": 5060,
      "난리가": 5061,
      "날도": 5062,
      "날라": 5063,
      "날씨": 5064,
      "날씬": 5065,
      "날아": 5066,
      "날이": 5067,
      "날짜": 5068,
      "날씨가": 5069,
      "남겨": 5070,
      "남는": 5071,
      "남아": 5072,
      "남안": 5073,
      "남았": 5074,
      "남은": 5075,
      "남의": 5076,
      "남이": 5077,
      "남았어": 5078,
      "남동생": 5079,
      "낫지": 5080,
      "났져": 5081,
      "났지": 5082,
      "났주게": 5083,
      "낮에": 5084,
      "낳고": 5085,
      "낳아": 5086,
      "낳았": 5087,
      "낳아서": 5088,
      "내내": 5089,
      "내년": 5090,
      "내놓": 5091,
      "내리": 5092,
      "내미": 5093,
      "내불": 5094,
      "내야": 5095,
      "내용": 5096,
      "내버려": 5097,
      "내부러": 5098,
      "내년에": 5099,
      "냄비": 5100,
      "냉이": 5101,
      "너가": 5102,
      "너넨": 5103,
      "너는": 5104,
      "너도": 5105,
      "너랑": 5106,
      "너만": 5107,
      "너미": 5108,
      "너희": 5109,
      "너한테": 5110,
      "너네가": 5111,
      "너네는": 5112,
      "넘게": 5113,
      "넘어": 5114,
      "넘어서": 5115,
      "넘어가": 5116,
      "넣고": 5117,
      "넣는": 5118,
      "넣어": 5119,
      "넣으면": 5120,
      "넣어서": 5121,
      "네도": 5122,
      "네요": 5123,
      "네이버": 5124,
      "년도": 5125,
      "년은": 5126,
      "년을": 5127,
      "년이": 5128,
      "노난": 5129,
      "노는": 5130,
      "노란": 5131,
      "노랑": 5132,
      "노력": 5133,
      "노릇": 5134,
      "노인": 5135,
      "노형": 5136,
      "녹음": 5137,
      "놀고": 5138,
      "놀라": 5139,
      "놀란": 5140,
      "놀랐": 5141,
      "놀래": 5142,
      "놀랜": 5143,
      "놀랬": 5144,
      "놀러": 5145,
      "놀아": 5146,
      "놀았": 5147,
      "놀이": 5148,
      "놀다가": 5149,
      "놀랐어": 5150,
      "놈삐": 5151,
      "놈이": 5152,
      "농사": 5153,
      "농약": 5154,
      "농협": 5155,
      "높아": 5156,
      "높은": 5157,
      "놓는": 5158,
      "놓을": 5159,
      "놓으니까": 5160,
      "놔둬": 5161,
      "놔뒀": 5162,
      "놔야": 5163,
      "누가": 5164,
      "누나": 5165,
      "누워": 5166,
      "누워서": 5167,
      "눈도": 5168,
      "눈물": 5169,
      "눈썹": 5170,
      "눈에": 5171,
      "눈을": 5172,
      "눈이": 5173,
      "눈치": 5174,
      "눌러": 5175,
      "뉴스": 5176,
      "느껴": 5177,
      "느꼈": 5178,
      "느끼": 5179,
      "느낀": 5180,
      "느냐": 5181,
      "느네": 5182,
      "느니": 5183,
      "느라": 5184,
      "는가": 5185,
      "는게": 5186,
      "는다": 5187,
      "는다고": 5188,
      "늘어": 5189,
      "늙어": 5190,
      "늙은": 5191,
      "능력": 5192,
      "늦게": 5193,
      "니께": 5194,
      "니네": 5195,
      "님도": 5196,
      "다게": 5197,
      "다년": 5198,
      "다념": 5199,
      "다닌": 5200,
      "다닐": 5201,
      "다다": 5202,
      "다들": 5203,
      "다듬": 5204,
      "다를": 5205,
      "다며": 5206,
      "다시": 5207,
      "다양": 5208,
      "다니까": 5209,
      "다리가": 5210,
      "다보면": 5211,
      "닦아": 5212,
      "단계": 5213,
      "단어": 5214,
      "단에": 5215,
      "단이": 5216,
      "단체": 5217,
      "단톡": 5218,
      "단풍": 5219,
      "닫아": 5220,
      "달고": 5221,
      "달달": 5222,
      "달래": 5223,
      "달랜": 5224,
      "달려": 5225,
      "달리": 5226,
      "달마": 5227,
      "달아": 5228,
      "닮고": 5229,
      "닮긴": 5230,
      "닮다": 5231,
      "닮안": 5232,
      "닮았": 5233,
      "닮은": 5234,
      "닮지": 5235,
      "닮수다": 5236,
      "닮았어": 5237,
      "닮은데": 5238,
      "닮은디": 5239,
      "담그": 5240,
      "담당": 5241,
      "담배": 5242,
      "담아": 5243,
      "담앙": 5244,
      "담임": 5245,
      "담아서": 5246,
      "답답": 5247,
      "당근": 5248,
      "당도": 5249,
      "당신": 5250,
      "당이": 5251,
      "당장": 5252,
      "당황": 5253,
      "당으네": 5254,
      "당보난": 5255,
      "대구": 5256,
      "대는": 5257,
      "대답": 5258,
      "대도": 5259,
      "대를": 5260,
      "대만": 5261,
      "대박": 5262,
      "대신": 5263,
      "대에": 5264,
      "대요": 5265,
      "대장": 5266,
      "대정": 5267,
      "대출": 5268,
      "대충": 5269,
      "대표": 5270,
      "대한": 5271,
      "대화": 5272,
      "대해서": 5273,
      "대학생": 5274,
      "대나무": 5275,
      "대부분": 5276,
      "댓글": 5277,
      "댕겨": 5278,
      "댕길": 5279,
      "더래": 5280,
      "더만": 5281,
      "더워": 5282,
      "던가": 5283,
      "던거": 5284,
      "던져": 5285,
      "던지": 5286,
      "데가": 5287,
      "데기": 5288,
      "데꼬": 5289,
      "데는": 5290,
      "데령": 5291,
      "데서": 5292,
      "데리고": 5293,
      "데리러": 5294,
      "도가": 5295,
      "도는": 5296,
      "도둑": 5297,
      "도록": 5298,
      "도를": 5299,
      "도리": 5300,
      "도민": 5301,
      "도에": 5302,
      "도이": 5303,
      "도전": 5304,
      "도착": 5305,
      "도대체": 5306,
      "도새기": 5307,
      "도서관": 5308,
      "도저히": 5309,
      "독감": 5310,
      "독일": 5311,
      "돈까": 5312,
      "돈도": 5313,
      "돈만": 5314,
      "돈은": 5315,
      "돈을": 5316,
      "돈이": 5317,
      "돈으로": 5318,
      "돌고": 5319,
      "돌려": 5320,
      "돌리": 5321,
      "돌멩": 5322,
      "돌앙": 5323,
      "돌아서": 5324,
      "동갑": 5325,
      "동그": 5326,
      "동기": 5327,
      "동남": 5328,
      "동물": 5329,
      "동백": 5330,
      "동서": 5331,
      "동이": 5332,
      "동쪽": 5333,
      "동창": 5334,
      "동네가": 5335,
      "동아리": 5336,
      "돼야": 5337,
      "돼여": 5338,
      "돼요": 5339,
      "돼가지고": 5340,
      "돼지고": 5341,
      "됐네": 5342,
      "됐다": 5343,
      "됐을": 5344,
      "됐지": 5345,
      "됐는데": 5346,
      "됐다고": 5347,
      "됐어요": 5348,
      "되게": 5349,
      "되기": 5350,
      "되긴": 5351,
      "되나": 5352,
      "되난": 5353,
      "되네": 5354,
      "되믄": 5355,
      "되여": 5356,
      "되주": 5357,
      "되켜": 5358,
      "되는데": 5359,
      "되잖아": 5360,
      "되신디": 5361,
      "되가지고": 5362,
      "되는거": 5363,
      "되거든": 5364,
      "되주게": 5365,
      "되니깐": 5366,
      "되겠다": 5367,
      "되면은": 5368,
      "되는디": 5369,
      "되겠어": 5370,
      "되는거야": 5371,
      "되크라": 5372,
      "되겠네": 5373,
      "된거": 5374,
      "된대": 5375,
      "된댄": 5376,
      "된장": 5377,
      "된다는": 5378,
      "될거": 5379,
      "될꺼": 5380,
      "될지": 5381,
      "될건데": 5382,
      "될건디": 5383,
      "됩니다": 5384,
      "됬어": 5385,
      "두개": 5386,
      "두꺼": 5387,
      "두드": 5388,
      "두면": 5389,
      "두번": 5390,
      "두부": 5391,
      "두시간": 5392,
      "두번째": 5393,
      "둘러": 5394,
      "둘이": 5395,
      "둘째": 5396,
      "둘이가": 5397,
      "둘이서": 5398,
      "둥이": 5399,
      "뒤로": 5400,
      "뒤에": 5401,
      "뒤에서": 5402,
      "드가": 5403,
      "드러": 5404,
      "드레": 5405,
      "드리": 5406,
      "든가": 5407,
      "든지": 5408,
      "듣고": 5409,
      "듣는": 5410,
      "들러": 5411,
      "들렁": 5412,
      "들려": 5413,
      "들리": 5414,
      "들만": 5415,
      "들면": 5416,
      "들언": 5417,
      "들엄": 5418,
      "들었": 5419,
      "들엉": 5420,
      "들에": 5421,
      "들여": 5422,
      "들의": 5423,
      "들으면": 5424,
      "들었어": 5425,
      "들하고": 5426,
      "들으니까": 5427,
      "들었는데": 5428,
      "들었던": 5429,
      "들으면서": 5430,
      "들끼리": 5431,
      "듯이": 5432,
      "등록": 5433,
      "등산": 5434,
      "등학교": 5435,
      "디가": 5436,
      "디오": 5437,
      "디자": 5438,
      "따고": 5439,
      "따는": 5440,
      "따라": 5441,
      "따러": 5442,
      "따로": 5443,
      "따른": 5444,
      "따서": 5445,
      "따라서": 5446,
      "딱딱": 5447,
      "딱히": 5448,
      "딸기": 5449,
      "딸도": 5450,
      "딸은": 5451,
      "딸이": 5452,
      "땅에": 5453,
      "땅을": 5454,
      "땅이": 5455,
      "때가": 5456,
      "때나": 5457,
      "때랑": 5458,
      "때려": 5459,
      "때만": 5460,
      "때에": 5461,
      "때니까": 5462,
      "때까지": 5463,
      "때부터": 5464,
      "때마다": 5465,
      "땐가": 5466,
      "떼기": 5467,
      "또똣": 5468,
      "또래": 5469,
      "똑똑": 5470,
      "똑바로": 5471,
      "뚜껑": 5472,
      "뚱뚱": 5473,
      "뛰어": 5474,
      "뜯어": 5475,
      "라가": 5476,
      "라게": 5477,
      "라지": 5478,
      "라부난": 5479,
      "란게": 5480,
      "란다": 5481,
      "랑은": 5482,
      "랗게": 5483,
      "랭이": 5484,
      "러스": 5485,
      "러운": 5486,
      "러워": 5487,
      "럽고": 5488,
      "레이": 5489,
      "렌트": 5490,
      "려나": 5491,
      "려면": 5492,
      "려야": 5493,
      "려가지고": 5494,
      "력이": 5495,
      "렸는데": 5496,
      "로는": 5497,
      "로도": 5498,
      "로만": 5499,
      "로워": 5500,
      "로구나": 5501,
      "로나가": 5502,
      "롭게": 5503,
      "르게": 5504,
      "르고": 5505,
      "르는": 5506,
      "르르": 5507,
      "르멍": 5508,
      "르면": 5509,
      "르지": 5510,
      "름이": 5511,
      "리도": 5512,
      "리로": 5513,
      "리를": 5514,
      "리멍": 5515,
      "리면": 5516,
      "리아": 5517,
      "리어": 5518,
      "리에": 5519,
      "리지": 5520,
      "리카": 5521,
      "리니까": 5522,
      "리면서": 5523,
      "린다": 5524,
      "린다고": 5525,
      "마구": 5526,
      "마농": 5527,
      "마늘": 5528,
      "마당": 5529,
      "마랑": 5530,
      "마루": 5531,
      "마른": 5532,
      "마셔": 5533,
      "마신": 5534,
      "마실": 5535,
      "마심": 5536,
      "마씀": 5537,
      "마주": 5538,
      "마침": 5539,
      "마흔": 5540,
      "마세요": 5541,
      "마스크": 5542,
      "마당에": 5543,
      "마무리": 5544,
      "막걸": 5545,
      "막내": 5546,
      "막상": 5547,
      "막아": 5548,
      "막이": 5549,
      "막걸리": 5550,
      "만나": 5551,
      "만난": 5552,
      "만날": 5553,
      "만났": 5554,
      "만낭": 5555,
      "만드": 5556,
      "만든": 5557,
      "만이": 5558,
      "만져": 5559,
      "만족": 5560,
      "만화": 5561,
      "만들어": 5562,
      "만나서": 5563,
      "만나는": 5564,
      "만나면": 5565,
      "만나고": 5566,
      "만났어": 5567,
      "만들어서": 5568,
      "만드는": 5569,
      "만났는데": 5570,
      "많고": 5571,
      "많네": 5572,
      "많다": 5573,
      "많댄": 5574,
      "많안": 5575,
      "많았": 5576,
      "많은": 5577,
      "많을": 5578,
      "많지": 5579,
      "많다고": 5580,
      "많잖아": 5581,
      "많아서": 5582,
      "많으니까": 5583,
      "많았어": 5584,
      "많은데": 5585,
      "많은디": 5586,
      "많은거": 5587,
      "말까": 5588,
      "말라": 5589,
      "말래": 5590,
      "말랜": 5591,
      "말려": 5592,
      "말만": 5593,
      "말씀": 5594,
      "말앙": 5595,
      "말야": 5596,
      "말투": 5597,
      "말한": 5598,
      "말할": 5599,
      "말핸": 5600,
      "말라고": 5601,
      "말하는": 5602,
      "말하고": 5603,
      "말하면": 5604,
      "말하지": 5605,
      "말해서": 5606,
      "말해야": 5607,
      "말하다": 5608,
      "말하니까": 5609,
      "말해도": 5610,
      "말했어": 5611,
      "말해주": 5612,
      "말하는거": 5613,
      "말인지": 5614,
      "맘에": 5615,
      "맛도": 5616,
      "맛없": 5617,
      "맛은": 5618,
      "맛이": 5619,
      "맛인": 5620,
      "맛좋": 5621,
      "맛집": 5622,
      "맛좋아": 5623,
      "망이": 5624,
      "맞게": 5625,
      "맞고": 5626,
      "맞네": 5627,
      "맞는": 5628,
      "맞다": 5629,
      "맞안": 5630,
      "맞았": 5631,
      "맞어": 5632,
      "맞은": 5633,
      "맞을": 5634,
      "맞지": 5635,
      "맞추": 5636,
      "맞는데": 5637,
      "맞으면": 5638,
      "맞는거": 5639,
      "맞아서": 5640,
      "맞주게": 5641,
      "맞았어": 5642,
      "맞습니다": 5643,
      "매달": 5644,
      "매우": 5645,
      "매운": 5646,
      "매일": 5647,
      "맥주": 5648,
      "맨날": 5649,
      "맨들": 5650,
      "맹질": 5651,
      "머랜": 5652,
      "머릿": 5653,
      "머리가": 5654,
      "먹게": 5655,
      "먹기": 5656,
      "먹긴": 5657,
      "먹다": 5658,
      "먹엄": 5659,
      "먹엉": 5660,
      "먹여": 5661,
      "먹은": 5662,
      "먹읍": 5663,
      "먹자": 5664,
      "먹잰": 5665,
      "먹젠": 5666,
      "먹지": 5667,
      "먹는데": 5668,
      "먹잖아": 5669,
      "먹었어": 5670,
      "먹다가": 5671,
      "먹는거": 5672,
      "먹어서": 5673,
      "먹으니까": 5674,
      "먹는디": 5675,
      "먹었는데": 5676,
      "먹었던": 5677,
      "먹지도": 5678,
      "먹으면서": 5679,
      "먹었어요": 5680,
      "먼저": 5681,
      "멀리": 5682,
      "멀어": 5683,
      "멀쩡": 5684,
      "멋있": 5685,
      "멍이": 5686,
      "멍청": 5687,
      "메뉴": 5688,
      "메밀": 5689,
      "며는": 5690,
      "며칠": 5691,
      "면역": 5692,
      "면이": 5693,
      "면접": 5694,
      "멸치": 5695,
      "명도": 5696,
      "명심": 5697,
      "명씩": 5698,
      "명은": 5699,
      "명절": 5700,
      "명이서": 5701,
      "몇개": 5702,
      "몇년": 5703,
      "몇번": 5704,
      "몇십": 5705,
      "모두": 5706,
      "모든": 5707,
      "모래": 5708,
      "모른": 5709,
      "모를": 5710,
      "모밀": 5711,
      "모셔": 5712,
      "모습": 5713,
      "모아": 5714,
      "모여": 5715,
      "모임": 5716,
      "모자": 5717,
      "모아서": 5718,
      "모여서": 5719,
      "목소": 5720,
      "목표": 5721,
      "목소리": 5722,
      "몬딱": 5723,
      "몰란": 5724,
      "몰랑": 5725,
      "몰래": 5726,
      "몰르": 5727,
      "몰라서": 5728,
      "몰라도": 5729,
      "몰랐어": 5730,
      "몸국": 5731,
      "몸도": 5732,
      "몸에": 5733,
      "몸을": 5734,
      "몸이": 5735,
      "못가": 5736,
      "못먹": 5737,
      "못살": 5738,
      "못생": 5739,
      "못한": 5740,
      "못할": 5741,
      "못해": 5742,
      "못핸": 5743,
      "못하는": 5744,
      "못하고": 5745,
      "못하지": 5746,
      "못해서": 5747,
      "못하게": 5748,
      "못하니까": 5749,
      "못했어": 5750,
      "못한다": 5751,
      "몽땅": 5752,
      "무거": 5753,
      "무너": 5754,
      "무료": 5755,
      "무릎": 5756,
      "무사": 5757,
      "무섭": 5758,
      "무슨": 5759,
      "무신": 5760,
      "무엇": 5761,
      "무신거": 5762,
      "무조건": 5763,
      "묶어": 5764,
      "문어": 5765,
      "문에": 5766,
      "문을": 5767,
      "문이": 5768,
      "문자": 5769,
      "문화": 5770,
      "묻어": 5771,
      "물건": 5772,
      "물려": 5773,
      "물론": 5774,
      "물리": 5775,
      "물질": 5776,
      "뭐가": 5777,
      "뭐고": 5778,
      "뭐꽈": 5779,
      "뭐냐": 5780,
      "뭐니": 5781,
      "뭐도": 5782,
      "뭐든": 5783,
      "뭐라": 5784,
      "뭐랑": 5785,
      "뭐래": 5786,
      "뭐랜": 5787,
      "뭐를": 5788,
      "뭐뭐": 5789,
      "뭐야": 5790,
      "뭐에": 5791,
      "뭐여": 5792,
      "뭐영": 5793,
      "뭐지": 5794,
      "뭐하": 5795,
      "뭐해": 5796,
      "뭐라고": 5797,
      "뭐하는": 5798,
      "뭐하고": 5799,
      "뭐하맨": 5800,
      "뭐냐면": 5801,
      "뭔가": 5802,
      "뭔데": 5803,
      "뭔말": 5804,
      "뭔지": 5805,
      "뭘로": 5806,
      "뭣도": 5807,
      "믄이": 5808,
      "미가": 5809,
      "미국": 5810,
      "미깡": 5811,
      "미니": 5812,
      "미래": 5813,
      "미리": 5814,
      "미술": 5815,
      "미쳐": 5816,
      "미쳤": 5817,
      "미치": 5818,
      "미친": 5819,
      "미터": 5820,
      "미끄러": 5821,
      "밀감": 5822,
      "밀어": 5823,
      "밀가루": 5824,
      "밑에": 5825,
      "밑에서": 5826,
      "밑으로": 5827,
      "바깥": 5828,
      "바꼈": 5829,
      "바꾸": 5830,
      "바꿀": 5831,
      "바꿔": 5832,
      "바꿨": 5833,
      "바뀌": 5834,
      "바뀐": 5835,
      "바당": 5836,
      "바라": 5837,
      "바르": 5838,
      "바보": 5839,
      "바빠": 5840,
      "바쁘": 5841,
      "바쁜": 5842,
      "바짝": 5843,
      "바퀴": 5844,
      "바당에": 5845,
      "바구니": 5846,
      "박스": 5847,
      "박아": 5848,
      "박이": 5849,
      "밖에서": 5850,
      "밖으로": 5851,
      "반대": 5852,
      "반은": 5853,
      "반응": 5854,
      "반이": 5855,
      "반죽": 5856,
      "반지": 5857,
      "반짝": 5858,
      "반찬": 5859,
      "받는": 5860,
      "받안": 5861,
      "받았": 5862,
      "받앙": 5863,
      "받은": 5864,
      "받을": 5865,
      "받으면": 5866,
      "받아서": 5867,
      "받았어": 5868,
      "받았는데": 5869,
      "받으러": 5870,
      "발견": 5871,
      "발라": 5872,
      "발로": 5873,
      "발전": 5874,
      "발표": 5875,
      "밤새": 5876,
      "밤에": 5877,
      "밤이": 5878,
      "밥도": 5879,
      "밥먹": 5880,
      "밥은": 5881,
      "밥을": 5882,
      "밥이": 5883,
      "방금": 5884,
      "방도": 5885,
      "방송": 5886,
      "방어": 5887,
      "방은": 5888,
      "방을": 5889,
      "방이": 5890,
      "방학": 5891,
      "방에서": 5892,
      "밭을": 5893,
      "밭이": 5894,
      "배가": 5895,
      "배기": 5896,
      "배달": 5897,
      "배려": 5898,
      "배송": 5899,
      "배운": 5900,
      "배울": 5901,
      "배워": 5902,
      "배웠": 5903,
      "백만": 5904,
      "백신": 5905,
      "백팔": 5906,
      "백만원": 5907,
      "백오십": 5908,
      "버는": 5909,
      "버니": 5910,
      "버련": 5911,
      "버릇": 5912,
      "버섯": 5913,
      "버스": 5914,
      "버지": 5915,
      "번도": 5916,
      "번만": 5917,
      "번씩": 5918,
      "번은": 5919,
      "번을": 5920,
      "벌고": 5921,
      "벌써": 5922,
      "벌어": 5923,
      "벌초": 5924,
      "벌어서": 5925,
      "범벅": 5926,
      "벗겨": 5927,
      "벗어": 5928,
      "별거": 5929,
      "보건": 5930,
      "보관": 5931,
      "보기": 5932,
      "보긴": 5933,
      "보낸": 5934,
      "보낼": 5935,
      "보러": 5936,
      "보름": 5937,
      "보말": 5938,
      "보멍": 5939,
      "보인": 5940,
      "보조": 5941,
      "보카": 5942,
      "보통": 5943,
      "보호": 5944,
      "보는데": 5945,
      "보라고": 5946,
      "보다가": 5947,
      "보는거": 5948,
      "보면은": 5949,
      "복잡": 5950,
      "본거": 5951,
      "본인": 5952,
      "본인이": 5953,
      "봅써": 5954,
      "봉사": 5955,
      "봉투": 5956,
      "봐라": 5957,
      "봐가지고": 5958,
      "봤던": 5959,
      "봤을": 5960,
      "봤지": 5961,
      "봤거든": 5962,
      "봤어요": 5963,
      "부끄": 5964,
      "부는": 5965,
      "부담": 5966,
      "부대": 5967,
      "부드": 5968,
      "부딪": 5969,
      "부런": 5970,
      "부럽": 5971,
      "부렀": 5972,
      "부렁": 5973,
      "부른": 5974,
      "부를": 5975,
      "부부": 5976,
      "부산": 5977,
      "부엌": 5978,
      "부에": 5979,
      "부자": 5980,
      "부잣": 5981,
      "부족": 5982,
      "부주": 5983,
      "부탁": 5984,
      "부턴": 5985,
      "부니까": 5986,
      "부니깐": 5987,
      "부동산": 5988,
      "북한": 5989,
      "분거": 5990,
      "분에": 5991,
      "분거라": 5992,
      "불교": 5993,
      "불라": 5994,
      "불러": 5995,
      "불렀": 5996,
      "불면": 5997,
      "불믄": 5998,
      "불민": 5999,
      "불쌍": 6000,
      "불안": 6001,
      "불지": 6002,
      "불편": 6003,
      "불러서": 6004,
      "붙어": 6005,
      "붙여": 6006,
      "붙은": 6007,
      "붙어서": 6008,
      "브랜드": 6009,
      "블루": 6010,
      "블로그": 6011,
      "비교": 6012,
      "비는": 6013,
      "비닐": 6014,
      "비도": 6015,
      "비료": 6016,
      "비를": 6017,
      "비린": 6018,
      "비밀": 6019,
      "비벼": 6020,
      "비싼": 6021,
      "비대면": 6022,
      "비타민": 6023,
      "빌려": 6024,
      "빌려서": 6025,
      "빙떡": 6026,
      "빠르": 6027,
      "빠른": 6028,
      "빠져": 6029,
      "빠졌": 6030,
      "빠지": 6031,
      "빠진": 6032,
      "빠지는": 6033,
      "빠지고": 6034,
      "빡세": 6035,
      "빨간": 6036,
      "빨래": 6037,
      "빨아": 6038,
      "빼고": 6039,
      "빼빼": 6040,
      "뽑아": 6041,
      "뿌려": 6042,
      "뿌리": 6043,
      "사건": 6044,
      "사과": 6045,
      "사귀": 6046,
      "사기": 6047,
      "사난": 6048,
      "사님": 6049,
      "사다": 6050,
      "사당": 6051,
      "사대": 6052,
      "사도": 6053,
      "사돈": 6054,
      "사랑": 6055,
      "사러": 6056,
      "사로": 6057,
      "사를": 6058,
      "사만": 6059,
      "사먹": 6060,
      "사면": 6061,
      "사발": 6062,
      "사백": 6063,
      "사삼": 6064,
      "사서": 6065,
      "사십": 6066,
      "사야": 6067,
      "사업": 6068,
      "사오": 6069,
      "사와": 6070,
      "사왔": 6071,
      "사용": 6072,
      "사위": 6073,
      "사천": 6074,
      "사촌": 6075,
      "사춘": 6076,
      "사켜": 6077,
      "사탕": 6078,
      "사회": 6079,
      "사니까": 6080,
      "사는데": 6081,
      "사신디": 6082,
      "사다가": 6083,
      "사가지고": 6084,
      "사는거": 6085,
      "사려고": 6086,
      "사주게": 6087,
      "사는디": 6088,
      "사우나": 6089,
      "산거": 6090,
      "산다": 6091,
      "산디": 6092,
      "산에": 6093,
      "산이": 6094,
      "산책": 6095,
      "산다고": 6096,
      "살거": 6097,
      "살게": 6098,
      "살고": 6099,
      "살기": 6100,
      "살다": 6101,
      "살당": 6102,
      "살려": 6103,
      "살림": 6104,
      "살멍": 6105,
      "살면": 6106,
      "살안": 6107,
      "살암": 6108,
      "살앙": 6109,
      "살에": 6110,
      "살지": 6111,
      "살짝": 6112,
      "살다가": 6113,
      "살아서": 6114,
      "살면서": 6115,
      "살려고": 6116,
      "살았어": 6117,
      "살았는데": 6118,
      "삶아": 6119,
      "삶아서": 6120,
      "삼년": 6121,
      "삼다": 6122,
      "삼만": 6123,
      "삼백": 6124,
      "삼성": 6125,
      "삼양": 6126,
      "삼일": 6127,
      "삼천": 6128,
      "삼춘": 6129,
      "샀어": 6130,
      "샀는데": 6131,
      "상담": 6132,
      "상대": 6133,
      "상도": 6134,
      "상상": 6135,
      "상에": 6136,
      "상을": 6137,
      "상이": 6138,
      "상처": 6139,
      "상품": 6140,
      "상당히": 6141,
      "새로": 6142,
      "새우": 6143,
      "새로운": 6144,
      "색이": 6145,
      "생겨": 6146,
      "생견": 6147,
      "생긴": 6148,
      "생길": 6149,
      "생선": 6150,
      "생이": 6151,
      "생일": 6152,
      "생겨서": 6153,
      "샤워": 6154,
      "서가": 6155,
      "서게": 6156,
      "서너": 6157,
      "서는": 6158,
      "서로": 6159,
      "서류": 6160,
      "서른": 6161,
      "서를": 6162,
      "서비": 6163,
      "서서": 6164,
      "서야": 6165,
      "서운": 6166,
      "서쪽": 6167,
      "섞어": 6168,
      "선게": 6169,
      "선물": 6170,
      "선배": 6171,
      "선수": 6172,
      "선이": 6173,
      "선택": 6174,
      "설마": 6175,
      "설명": 6176,
      "설치": 6177,
      "설탕": 6178,
      "설거지": 6179,
      "섭섭": 6180,
      "성게": 6181,
      "성공": 6182,
      "성님": 6183,
      "성당": 6184,
      "성산": 6185,
      "성을": 6186,
      "성이": 6187,
      "성인": 6188,
      "성적": 6189,
      "성질": 6190,
      "성님은": 6191,
      "세가": 6192,
      "세개": 6193,
      "세게": 6194,
      "세계": 6195,
      "세금": 6196,
      "세대": 6197,
      "세워": 6198,
      "세월": 6199,
      "세일": 6200,
      "세탁": 6201,
      "센터": 6202,
      "센트": 6203,
      "셋이": 6204,
      "셋째": 6205,
      "셔서": 6206,
      "셨어": 6207,
      "셨어요": 6208,
      "소가": 6209,
      "소금": 6210,
      "소독": 6211,
      "소라": 6212,
      "소름": 6213,
      "소못": 6214,
      "소문": 6215,
      "소에": 6216,
      "소주": 6217,
      "소풍": 6218,
      "소화": 6219,
      "소리가": 6220,
      "소고기": 6221,
      "속상": 6222,
      "속이": 6223,
      "속에서": 6224,
      "속으로": 6225,
      "손님": 6226,
      "손에": 6227,
      "손을": 6228,
      "손이": 6229,
      "손자": 6230,
      "손주": 6231,
      "손지": 6232,
      "손톱": 6233,
      "손해": 6234,
      "손으로": 6235,
      "손님이": 6236,
      "손가락": 6237,
      "솔잎": 6238,
      "쇼핑": 6239,
      "수건": 6240,
      "수게": 6241,
      "수고": 6242,
      "수과": 6243,
      "수광": 6244,
      "수꽈": 6245,
      "수능": 6246,
      "수로": 6247,
      "수록": 6248,
      "수를": 6249,
      "수면": 6250,
      "수박": 6251,
      "수업": 6252,
      "수영": 6253,
      "수욕": 6254,
      "수입": 6255,
      "수있": 6256,
      "수제": 6257,
      "수준": 6258,
      "수밖에": 6259,
      "숙소": 6260,
      "순간": 6261,
      "숟가락": 6262,
      "술도": 6263,
      "술을": 6264,
      "숨겨": 6265,
      "쉬고": 6266,
      "쉬는": 6267,
      "쉬어": 6268,
      "쉬운": 6269,
      "쉽게": 6270,
      "쉽지": 6271,
      "스가": 6272,
      "스는": 6273,
      "스님": 6274,
      "스도": 6275,
      "스럽": 6276,
      "스를": 6277,
      "스무": 6278,
      "스물": 6279,
      "스위": 6280,
      "스케": 6281,
      "스키": 6282,
      "스터": 6283,
      "스토": 6284,
      "스포": 6285,
      "스피": 6286,
      "스마트": 6287,
      "스스로": 6288,
      "스페인": 6289,
      "습관": 6290,
      "시가": 6291,
      "시계": 6292,
      "시고": 6293,
      "시골": 6294,
      "시끄": 6295,
      "시난": 6296,
      "시내": 6297,
      "시냐": 6298,
      "시네": 6299,
      "시녜": 6300,
      "시녠": 6301,
      "시는": 6302,
      "시니": 6303,
      "시다": 6304,
      "시댁": 6305,
      "시로": 6306,
      "시면": 6307,
      "시믄": 6308,
      "시민": 6309,
      "시아": 6310,
      "시어": 6311,
      "시원": 6312,
      "시월": 6313,
      "시작": 6314,
      "시절": 6315,
      "시즌": 6316,
      "시집": 6317,
      "시청": 6318,
      "시커": 6319,
      "시켰": 6320,
      "시킨": 6321,
      "시킬": 6322,
      "시피": 6323,
      "시니까": 6324,
      "시까지": 6325,
      "시부터": 6326,
      "시아버지": 6327,
      "시어멍": 6328,
      "식게": 6329,
      "식당": 6330,
      "식도": 6331,
      "식을": 6332,
      "식이": 6333,
      "식당에": 6334,
      "신게": 6335,
      "신경": 6336,
      "신데": 6337,
      "신랑": 6338,
      "신문": 6339,
      "신발": 6340,
      "신부": 6341,
      "신지": 6342,
      "신청": 6343,
      "신혼": 6344,
      "신제주": 6345,
      "신랑이": 6346,
      "실거": 6347,
      "실수": 6348,
      "실습": 6349,
      "실이": 6350,
      "실거라": 6351,
      "실건디": 6352,
      "실제로": 6353,
      "싫은": 6354,
      "싫어서": 6355,
      "심각": 6356,
      "심심": 6357,
      "심어": 6358,
      "심한": 6359,
      "심해": 6360,
      "심하게": 6361,
      "심지어": 6362,
      "십년": 6363,
      "십만": 6364,
      "십분": 6365,
      "십오": 6366,
      "십칠": 6367,
      "십팔": 6368,
      "십만원": 6369,
      "십디다": 6370,
      "싶고": 6371,
      "싶긴": 6372,
      "싶다": 6373,
      "싶언": 6374,
      "싶은": 6375,
      "싶을": 6376,
      "싶지": 6377,
      "싶다고": 6378,
      "싶으면": 6379,
      "싶었어": 6380,
      "싶어서": 6381,
      "싶었는데": 6382,
      "싶은데": 6383,
      "싶은디": 6384,
      "싸게": 6385,
      "싸고": 6386,
      "싸서": 6387,
      "싸우": 6388,
      "싸운": 6389,
      "싸울": 6390,
      "싸움": 6391,
      "싸워": 6392,
      "싸웠": 6393,
      "쌀밥": 6394,
      "쌓아": 6395,
      "쌤이": 6396,
      "써도": 6397,
      "써서": 6398,
      "써야": 6399,
      "썰어": 6400,
      "썰어서": 6401,
      "썼어": 6402,
      "쓰고": 6403,
      "쓰는": 6404,
      "쓰러": 6405,
      "쓰리": 6406,
      "쓰면": 6407,
      "쓰지": 6408,
      "쓰니까": 6409,
      "쓰는데": 6410,
      "쓰는거": 6411,
      "쓸데": 6412,
      "씻고": 6413,
      "씻어": 6414,
      "아고": 6415,
      "아깝": 6416,
      "아껴": 6417,
      "아끼": 6418,
      "아나": 6419,
      "아냐": 6420,
      "아네": 6421,
      "아는": 6422,
      "아닐": 6423,
      "아님": 6424,
      "아도": 6425,
      "아따": 6426,
      "아래": 6427,
      "아마": 6428,
      "아부": 6429,
      "아쉬": 6430,
      "아쉽": 6431,
      "아시": 6432,
      "아아": 6433,
      "아야": 6434,
      "아예": 6435,
      "아오": 6436,
      "아우": 6437,
      "아유": 6438,
      "아찌": 6439,
      "아판": 6440,
      "아팠": 6441,
      "아팡": 6442,
      "아픈": 6443,
      "아플": 6444,
      "아휴": 6445,
      "아니까": 6446,
      "아는데": 6447,
      "아가지고": 6448,
      "아들이": 6449,
      "아들은": 6450,
      "아들도": 6451,
      "아들한테": 6452,
      "아부지": 6453,
      "안가": 6454,
      "안간": 6455,
      "안경": 6456,
      "안나": 6457,
      "안남": 6458,
      "안내": 6459,
      "안녕": 6460,
      "안돼": 6461,
      "안됐": 6462,
      "안된": 6463,
      "안될": 6464,
      "안들": 6465,
      "안맞": 6466,
      "안먹": 6467,
      "안보": 6468,
      "안봐": 6469,
      "안쓰": 6470,
      "안아": 6471,
      "안전": 6472,
      "안정": 6473,
      "안좋": 6474,
      "안주": 6475,
      "안타": 6476,
      "안하": 6477,
      "안할": 6478,
      "안핸": 6479,
      "안햄": 6480,
      "안했": 6481,
      "안행": 6482,
      "안허": 6483,
      "안들어": 6484,
      "안에서": 6485,
      "안하는": 6486,
      "안하고": 6487,
      "안먹어": 6488,
      "안좋아": 6489,
      "안하면": 6490,
      "안해서": 6491,
      "안해도": 6492,
      "안했어": 6493,
      "안된다": 6494,
      "안허고": 6495,
      "안된다고": 6496,
      "앉아": 6497,
      "앉았": 6498,
      "앉앙": 6499,
      "앉아서": 6500,
      "않게": 6501,
      "않고": 6502,
      "않나": 6503,
      "않는": 6504,
      "않니": 6505,
      "않안": 6506,
      "않애": 6507,
      "않앤": 6508,
      "않으": 6509,
      "않은": 6510,
      "않을": 6511,
      "않지": 6512,
      "않잖아": 6513,
      "않으면": 6514,
      "않아서": 6515,
      "않으니까": 6516,
      "않았어": 6517,
      "않은데": 6518,
      "않았는데": 6519,
      "않습니까": 6520,
      "않을까": 6521,
      "알게": 6522,
      "알겐": 6523,
      "알고": 6524,
      "알려": 6525,
      "알면": 6526,
      "알안": 6527,
      "알암": 6528,
      "알앙": 6529,
      "알지": 6530,
      "알잖아": 6531,
      "알아서": 6532,
      "알았어": 6533,
      "알겠어": 6534,
      "알았는데": 6535,
      "알겠지": 6536,
      "암튼": 6537,
      "았다": 6538,
      "았지": 6539,
      "았어요": 6540,
      "앙으네": 6541,
      "앞에": 6542,
      "앞이": 6543,
      "앞에서": 6544,
      "앞으로": 6545,
      "애가": 6546,
      "애는": 6547,
      "애들": 6548,
      "애매": 6549,
      "애월": 6550,
      "애플": 6551,
      "애들이": 6552,
      "애들은": 6553,
      "애들도": 6554,
      "애들한테": 6555,
      "애들이랑": 6556,
      "애초에": 6557,
      "야간": 6558,
      "야돼": 6559,
      "야되": 6560,
      "야무": 6561,
      "야야": 6562,
      "야인": 6563,
      "야채": 6564,
      "야이가": 6565,
      "약간": 6566,
      "약속": 6567,
      "약을": 6568,
      "양념": 6569,
      "양말": 6570,
      "양이": 6571,
      "양파": 6572,
      "얘가": 6573,
      "얘길": 6574,
      "얘네": 6575,
      "얘는": 6576,
      "얘도": 6577,
      "얘랑": 6578,
      "얘네가": 6579,
      "어게": 6580,
      "어깨": 6581,
      "어두": 6582,
      "어딘": 6583,
      "어딜": 6584,
      "어딨": 6585,
      "어때": 6586,
      "어떨": 6587,
      "어를": 6588,
      "어마": 6589,
      "어색": 6590,
      "어선": 6591,
      "어성": 6592,
      "어신": 6593,
      "어실": 6594,
      "어야": 6595,
      "어어": 6596,
      "어우": 6597,
      "어울": 6598,
      "어져": 6599,
      "어진": 6600,
      "어찌": 6601,
      "어휴": 6602,
      "어가지고": 6603,
      "어수다": 6604,
      "어이가": 6605,
      "어신거": 6606,
      "어저께": 6607,
      "어렸을": 6608,
      "어차피": 6609,
      "억울": 6610,
      "억지로": 6611,
      "언닌": 6612,
      "언젠": 6613,
      "얻어": 6614,
      "얼른": 6615,
      "얼만": 6616,
      "얼음": 6617,
      "없고": 6618,
      "없나": 6619,
      "없네": 6620,
      "없다": 6621,
      "없대": 6622,
      "없댄": 6623,
      "없애": 6624,
      "없언": 6625,
      "없었": 6626,
      "없을": 6627,
      "없지": 6628,
      "없는데": 6629,
      "없다고": 6630,
      "없잖아": 6631,
      "없으면": 6632,
      "없었어": 6633,
      "없는거": 6634,
      "없어서": 6635,
      "없거든": 6636,
      "없어요": 6637,
      "없주게": 6638,
      "없으니까": 6639,
      "없더라": 6640,
      "없었는데": 6641,
      "없었던": 6642,
      "없는거야": 6643,
      "었고": 6644,
      "었나": 6645,
      "었네": 6646,
      "었다": 6647,
      "었대": 6648,
      "었댄": 6649,
      "었언": 6650,
      "었을": 6651,
      "었지": 6652,
      "었다고": 6653,
      "었잖아": 6654,
      "었으면": 6655,
      "었었어": 6656,
      "었다가": 6657,
      "었거든": 6658,
      "었주게": 6659,
      "었구나": 6660,
      "었으니까": 6661,
      "었는지": 6662,
      "엉으네": 6663,
      "엊그": 6664,
      "엎어": 6665,
      "에게": 6666,
      "에다": 6667,
      "에도": 6668,
      "에만": 6669,
      "에선": 6670,
      "에휴": 6671,
      "에다가": 6672,
      "엑스": 6673,
      "엔가": 6674,
      "엘리": 6675,
      "여게": 6676,
      "여고": 6677,
      "여긴": 6678,
      "여유": 6679,
      "여신디": 6680,
      "여가지고": 6681,
      "역사": 6682,
      "역시": 6683,
      "역할": 6684,
      "연결": 6685,
      "연구": 6686,
      "연기": 6687,
      "연말": 6688,
      "연습": 6689,
      "연애": 6690,
      "연탄": 6691,
      "열매": 6692,
      "열어": 6693,
      "열한": 6694,
      "열흘": 6695,
      "열심히": 6696,
      "염색": 6697,
      "였나": 6698,
      "였네": 6699,
      "였던": 6700,
      "였지": 6701,
      "였으면": 6702,
      "였거든": 6703,
      "영국": 6704,
      "영상": 6705,
      "영양": 6706,
      "영어": 6707,
      "영영": 6708,
      "영해": 6709,
      "영행": 6710,
      "영허": 6711,
      "영해신디": 6712,
      "옆에": 6713,
      "옆에서": 6714,
      "옆으로": 6715,
      "예게": 6716,
      "예를": 6717,
      "예민": 6718,
      "예방": 6719,
      "예배": 6720,
      "예뻐": 6721,
      "예쁘": 6722,
      "예쁜": 6723,
      "예약": 6724,
      "예예": 6725,
      "예전에": 6726,
      "예쁘게": 6727,
      "오게": 6728,
      "오기": 6729,
      "오난": 6730,
      "오르": 6731,
      "오른": 6732,
      "오리": 6733,
      "오만": 6734,
      "오멍": 6735,
      "오믄": 6736,
      "오민": 6737,
      "오분": 6738,
      "오전": 6739,
      "오죽": 6740,
      "오줌": 6741,
      "오천": 6742,
      "오픈": 6743,
      "오는데": 6744,
      "오잖아": 6745,
      "오라고": 6746,
      "오다가": 6747,
      "오면서": 6748,
      "오려고": 6749,
      "오세요": 6750,
      "오면은": 6751,
      "오만원": 6752,
      "오전에": 6753,
      "오케이": 6754,
      "오천원": 6755,
      "오히려": 6756,
      "옥돔": 6757,
      "온다": 6758,
      "온댄": 6759,
      "온다고": 6760,
      "온라인": 6761,
      "올랐": 6762,
      "올려": 6763,
      "올렸": 6764,
      "올리": 6765,
      "올린": 6766,
      "올케": 6767,
      "올리고": 6768,
      "올리는": 6769,
      "옮겨": 6770,
      "옷도": 6771,
      "옷은": 6772,
      "옷을": 6773,
      "옷이": 6774,
      "와랑": 6775,
      "와야": 6776,
      "와인": 6777,
      "와가지고": 6778,
      "와그네": 6779,
      "와그넹": 6780,
      "왔네": 6781,
      "왔댄": 6782,
      "왔을": 6783,
      "왔지": 6784,
      "왔다고": 6785,
      "왔잖아": 6786,
      "왔었어": 6787,
      "왔다가": 6788,
      "왔어요": 6789,
      "왕으네": 6790,
      "외국": 6791,
      "외할머니": 6792,
      "외국인": 6793,
      "요가": 6794,
      "요거": 6795,
      "요기": 6796,
      "요런": 6797,
      "요리": 6798,
      "요망": 6799,
      "요번": 6800,
      "요샌": 6801,
      "요양": 6802,
      "요번에": 6803,
      "요만큼": 6804,
      "요번에도": 6805,
      "욕심": 6806,
      "욕을": 6807,
      "욕심이": 6808,
      "용돈": 6809,
      "용이": 6810,
      "우고": 6811,
      "우는": 6812,
      "우도": 6813,
      "우린": 6814,
      "우면": 6815,
      "우산": 6816,
      "우선": 6817,
      "우에": 6818,
      "우와": 6819,
      "우유": 6820,
      "우니까": 6821,
      "운영": 6822,
      "운전": 6823,
      "울고": 6824,
      "울어": 6825,
      "울언": 6826,
      "울었어": 6827,
      "울면서": 6828,
      "웃겨": 6829,
      "웃고": 6830,
      "웃기": 6831,
      "웃긴": 6832,
      "웃어": 6833,
      "웃음": 6834,
      "웃으면서": 6835,
      "워낙": 6836,
      "원씩": 6837,
      "원에서": 6838,
      "원하는": 6839,
      "원인가": 6840,
      "원짜리": 6841,
      "월급": 6842,
      "월달": 6843,
      "월에": 6844,
      "월요일": 6845,
      "웠어": 6846,
      "웬만하면": 6847,
      "웹툰": 6848,
      "위로": 6849,
      "위에": 6850,
      "위험": 6851,
      "위에서": 6852,
      "위해서": 6853,
      "유럽": 6854,
      "유리": 6855,
      "유산": 6856,
      "유전": 6857,
      "유지": 6858,
      "유채": 6859,
      "유학": 6860,
      "유행": 6861,
      "유튜브": 6862,
      "육지는": 6863,
      "으고": 6864,
      "으난": 6865,
      "으내": 6866,
      "으냉": 6867,
      "으넹": 6868,
      "으는": 6869,
      "으니": 6870,
      "으라": 6871,
      "으래": 6872,
      "으랜": 6873,
      "으론": 6874,
      "으맨": 6875,
      "으멍": 6876,
      "으믄": 6877,
      "으민": 6878,
      "으응": 6879,
      "으라고": 6880,
      "으려고": 6881,
      "으세요": 6882,
      "은근": 6883,
      "은에": 6884,
      "은이": 6885,
      "은행": 6886,
      "을때": 6887,
      "을거야": 6888,
      "음료": 6889,
      "음악": 6890,
      "음에": 6891,
      "음이": 6892,
      "읍니까": 6893,
      "의료": 6894,
      "의미": 6895,
      "의사": 6896,
      "의심": 6897,
      "의외": 6898,
      "의사가": 6899,
      "이건": 6900,
      "이걸": 6901,
      "이겨": 6902,
      "이고": 6903,
      "이기": 6904,
      "이긴": 6905,
      "이나": 6906,
      "이난": 6907,
      "이냐": 6908,
      "이너": 6909,
      "이녁": 6910,
      "이년": 6911,
      "이는": 6912,
      "이니": 6913,
      "이도": 6914,
      "이동": 6915,
      "이든": 6916,
      "이디": 6917,
      "이때": 6918,
      "이란": 6919,
      "이럴": 6920,
      "이로": 6921,
      "이루": 6922,
      "이를": 6923,
      "이리": 6924,
      "이면": 6925,
      "이모": 6926,
      "이미": 6927,
      "이백": 6928,
      "이불": 6929,
      "이브": 6930,
      "이빨": 6931,
      "이뻐": 6932,
      "이쁘": 6933,
      "이쁜": 6934,
      "이사": 6935,
      "이삼": 6936,
      "이선": 6937,
      "이성": 6938,
      "이션": 6939,
      "이스": 6940,
      "이신": 6941,
      "이실": 6942,
      "이언": 6943,
      "이에": 6944,
      "이여": 6945,
      "이연": 6946,
      "이영": 6947,
      "이요": 6948,
      "이용": 6949,
      "이월": 6950,
      "이자": 6951,
      "이젠": 6952,
      "이지": 6953,
      "이쪽": 6954,
      "이천": 6955,
      "이층": 6956,
      "이케": 6957,
      "이크": 6958,
      "이터": 6959,
      "이트": 6960,
      "이틀": 6961,
      "이혼": 6962,
      "이니까": 6963,
      "이잖아": 6964,
      "이한테": 6965,
      "이었어": 6966,
      "이어서": 6967,
      "이거든": 6968,
      "이주게": 6969,
      "이구나": 6970,
      "이번에": 6971,
      "이수다": 6972,
      "이정도": 6973,
      "이것도": 6974,
      "이만큼": 6975,
      "이에요": 6976,
      "이였어": 6977,
      "이우다": 6978,
      "이걸로": 6979,
      "이것만": 6980,
      "이것이": 6981,
      "이마트": 6982,
      "이신가": 6983,
      "이신거": 6984,
      "이쪽으로": 6985,
      "이추룩": 6986,
      "이해가": 6987,
      "이놈의": 6988,
      "이만한": 6989,
      "이모가": 6990,
      "이번에도": 6991,
      "이빠이": 6992,
      "이쁘게": 6993,
      "익숙": 6994,
      "인간": 6995,
      "인거": 6996,
      "인게": 6997,
      "인기": 6998,
      "인도": 6999,
      "인사": 7000,
      "인생": 7001,
      "인연": 7002,
      "인정": 7003,
      "인제": 7004,
      "인줄": 7005,
      "인천": 7006,
      "인턴": 7007,
      "인형": 7008,
      "인스타": 7009,
      "일곱": 7010,
      "일날": 7011,
      "일년": 7012,
      "일도": 7013,
      "일등": 7014,
      "일로": 7015,
      "일만": 7016,
      "일반": 7017,
      "일상": 7018,
      "일억": 7019,
      "일월": 7020,
      "일은": 7021,
      "일일": 7022,
      "일찍": 7023,
      "일할": 7024,
      "일하는": 7025,
      "일하고": 7026,
      "일요일": 7027,
      "일부러": 7028,
      "일년에": 7029,
      "일학년": 7030,
      "일요일날": 7031,
      "읽고": 7032,
      "읽어": 7033,
      "잃어": 7034,
      "임신": 7035,
      "입고": 7036,
      "입구": 7037,
      "입는": 7038,
      "입맛": 7039,
      "입어": 7040,
      "입엉": 7041,
      "입에": 7042,
      "입원": 7043,
      "입은": 7044,
      "입을": 7045,
      "입이": 7046,
      "입장": 7047,
      "입학": 7048,
      "입니까": 7049,
      "입니다": 7050,
      "있긴": 7051,
      "있나": 7052,
      "있냐": 7053,
      "있니": 7054,
      "있당": 7055,
      "있대": 7056,
      "있댄": 7057,
      "있던": 7058,
      "있언": 7059,
      "있으": 7060,
      "있을": 7061,
      "있다고": 7062,
      "있었어": 7063,
      "있다가": 7064,
      "있어서": 7065,
      "있거든": 7066,
      "있주게": 7067,
      "있구나": 7068,
      "있더라": 7069,
      "있수다": 7070,
      "있겠다": 7071,
      "있는디": 7072,
      "있더라고": 7073,
      "있지만": 7074,
      "있습니다": 7075,
      "있다는": 7076,
      "있던데": 7077,
      "있는거야": 7078,
      "있냐고": 7079,
      "있습니까": 7080,
      "있을거": 7081,
      "있을까": 7082,
      "있었어요": 7083,
      "있으니깐": 7084,
      "잊어": 7085,
      "자긴": 7086,
      "자꾸": 7087,
      "자도": 7088,
      "자라": 7089,
      "자락": 7090,
      "자랑": 7091,
      "자로": 7092,
      "자를": 7093,
      "자살": 7094,
      "자세": 7095,
      "자신": 7096,
      "자에": 7097,
      "자유": 7098,
      "자이": 7099,
      "자존": 7100,
      "자주": 7101,
      "자취": 7102,
      "자리가": 7103,
      "자마자": 7104,
      "작아": 7105,
      "작업": 7106,
      "작은": 7107,
      "작년에": 7108,
      "잔치": 7109,
      "잔소리": 7110,
      "잘도": 7111,
      "잘라": 7112,
      "잘못": 7113,
      "잘생": 7114,
      "잘하": 7115,
      "잘해": 7116,
      "잘하는": 7117,
      "잘하고": 7118,
      "잘했어": 7119,
      "잘라서": 7120,
      "잘생겼": 7121,
      "잠도": 7122,
      "잠을": 7123,
      "잠이": 7124,
      "잠자": 7125,
      "잡고": 7126,
      "잡는": 7127,
      "잡아": 7128,
      "잡았": 7129,
      "잡앙": 7130,
      "잡은": 7131,
      "잡을": 7132,
      "잡초": 7133,
      "잡혀": 7134,
      "잡아서": 7135,
      "잡으러": 7136,
      "잤어": 7137,
      "장가": 7138,
      "장난": 7139,
      "장님": 7140,
      "장도": 7141,
      "장례": 7142,
      "장사": 7143,
      "장애": 7144,
      "장에": 7145,
      "장은": 7146,
      "장을": 7147,
      "장이": 7148,
      "장에서": 7149,
      "장으로": 7150,
      "장님이": 7151,
      "재기": 7152,
      "재료": 7153,
      "재민": 7154,
      "재산": 7155,
      "재수": 7156,
      "쟁이": 7157,
      "쟤는": 7158,
      "저거": 7159,
      "저건": 7160,
      "저게": 7161,
      "저는": 7162,
      "저도": 7163,
      "저디": 7164,
      "저런": 7165,
      "저번": 7166,
      "저장": 7167,
      "저쪽": 7168,
      "저희": 7169,
      "저번에": 7170,
      "저것도": 7171,
      "저렇게": 7172,
      "저번에도": 7173,
      "적도": 7174,
      "적어": 7175,
      "적은": 7176,
      "적응": 7177,
      "적인": 7178,
      "적으로": 7179,
      "적당히": 7180,
      "전공": 7181,
      "전국": 7182,
      "전기": 7183,
      "전날": 7184,
      "전문": 7185,
      "전복": 7186,
      "전부": 7187,
      "전세": 7188,
      "전역": 7189,
      "전이": 7190,
      "전자": 7191,
      "전쟁": 7192,
      "전체": 7193,
      "전혀": 7194,
      "전부터": 7195,
      "전에는": 7196,
      "전라도": 7197,
      "절간": 7198,
      "절대": 7199,
      "절에": 7200,
      "젊은": 7201,
      "젊을": 7202,
      "점심": 7203,
      "점이": 7204,
      "점점": 7205,
      "젓갈": 7206,
      "정리": 7207,
      "정말": 7208,
      "정보": 7209,
      "정상": 7210,
      "정성": 7211,
      "정신": 7212,
      "정을": 7213,
      "정해": 7214,
      "정말로": 7215,
      "정신이": 7216,
      "제대": 7217,
      "제도": 7218,
      "제라": 7219,
      "제를": 7220,
      "제목": 7221,
      "제발": 7222,
      "제사": 7223,
      "제일": 7224,
      "제대로": 7225,
      "져게": 7226,
      "져서": 7227,
      "져이": 7228,
      "져가지고": 7229,
      "졌다": 7230,
      "졌댄": 7231,
      "졌어": 7232,
      "졌지": 7233,
      "졌는데": 7234,
      "졌다고": 7235,
      "조들": 7236,
      "조사": 7237,
      "조상": 7238,
      "조절": 7239,
      "조천": 7240,
      "조카": 7241,
      "족발": 7242,
      "족은": 7243,
      "존나": 7244,
      "졸라": 7245,
      "졸업": 7246,
      "좁쌀": 7247,
      "좁아": 7248,
      "종교": 7249,
      "종류": 7250,
      "종이": 7251,
      "좋게": 7252,
      "좋겐": 7253,
      "좋고": 7254,
      "좋긴": 7255,
      "좋네": 7256,
      "좋다": 7257,
      "좋대": 7258,
      "좋댄": 7259,
      "좋안": 7260,
      "좋으": 7261,
      "좋을": 7262,
      "좋지": 7263,
      "좋다고": 7264,
      "좋잖아": 7265,
      "좋으면": 7266,
      "좋아서": 7267,
      "좋으니까": 7268,
      "좋더라": 7269,
      "좋았어": 7270,
      "좋겠다": 7271,
      "좋은데": 7272,
      "좋겠어": 7273,
      "좋았는데": 7274,
      "좋은디": 7275,
      "좋은거": 7276,
      "좋을거": 7277,
      "죄송": 7278,
      "주가": 7279,
      "주말": 7280,
      "주먹": 7281,
      "주문": 7282,
      "주민": 7283,
      "주사": 7284,
      "주소": 7285,
      "주식": 7286,
      "주워": 7287,
      "주위": 7288,
      "주의": 7289,
      "주일": 7290,
      "주제": 7291,
      "주차": 7292,
      "주켄": 7293,
      "주머니": 7294,
      "주면서": 7295,
      "주만은": 7296,
      "주마씨": 7297,
      "주마씸": 7298,
      "주인이": 7299,
      "주마는": 7300,
      "주말에": 7301,
      "죽고": 7302,
      "죽는": 7303,
      "죽어": 7304,
      "죽여": 7305,
      "죽은": 7306,
      "죽을": 7307,
      "죽었어": 7308,
      "죽어지": 7309,
      "죽어도": 7310,
      "준비": 7311,
      "줄도": 7312,
      "줄어": 7313,
      "줄여": 7314,
      "줄을": 7315,
      "줍서": 7316,
      "중간": 7317,
      "중고": 7318,
      "중국": 7319,
      "중앙": 7320,
      "중에서": 7321,
      "중학교": 7322,
      "중학생": 7323,
      "중간에": 7324,
      "중국어": 7325,
      "쥬게": 7326,
      "증이": 7327,
      "지갑": 7328,
      "지게": 7329,
      "지근": 7330,
      "지기": 7331,
      "지긴": 7332,
      "지꺼": 7333,
      "지나": 7334,
      "지내": 7335,
      "지냈": 7336,
      "지네": 7337,
      "지다": 7338,
      "지랄": 7339,
      "지를": 7340,
      "지름": 7341,
      "지마": 7342,
      "지믄": 7343,
      "지방": 7344,
      "지않": 7345,
      "지에": 7346,
      "지역": 7347,
      "지요": 7348,
      "지원": 7349,
      "지은": 7350,
      "지지": 7351,
      "지쳐": 7352,
      "지치": 7353,
      "지켜": 7354,
      "지키": 7355,
      "지니까": 7356,
      "지잖아": 7357,
      "지는거": 7358,
      "지어서": 7359,
      "지네가": 7360,
      "지나서": 7361,
      "지나면": 7362,
      "지않아": 7363,
      "직업": 7364,
      "직원": 7365,
      "직장": 7366,
      "직접": 7367,
      "진거": 7368,
      "진다": 7369,
      "진심": 7370,
      "진행": 7371,
      "질거": 7372,
      "질문": 7373,
      "질을": 7374,
      "질이": 7375,
      "집안": 7376,
      "집어": 7377,
      "집중": 7378,
      "집니까": 7379,
      "집으로": 7380,
      "집마다": 7381,
      "짓고": 7382,
      "짜장": 7383,
      "짧게": 7384,
      "짧은": 7385,
      "쪄게": 7386,
      "쪼끔": 7387,
      "쪽은": 7388,
      "쪽이": 7389,
      "쫓아": 7390,
      "쭈게": 7391,
      "쯤에": 7392,
      "찌개": 7393,
      "찍고": 7394,
      "찍는": 7395,
      "찍어": 7396,
      "찍은": 7397,
      "찍을": 7398,
      "찍어서": 7399,
      "찢어": 7400,
      "차는": 7401,
      "차도": 7402,
      "차려": 7403,
      "차로": 7404,
      "차를": 7405,
      "차에": 7406,
      "차이": 7407,
      "차이가": 7408,
      "차라리": 7409,
      "착한": 7410,
      "착하다": 7411,
      "참고": 7412,
      "참기름": 7413,
      "찹쌀": 7414,
      "창고": 7415,
      "창문": 7416,
      "창피": 7417,
      "찾아": 7418,
      "찾아서": 7419,
      "채워": 7420,
      "책을": 7421,
      "책임": 7422,
      "챙겨": 7423,
      "챙기": 7424,
      "처리": 7425,
      "천만": 7426,
      "첫째": 7427,
      "청년": 7428,
      "청소": 7429,
      "체력": 7430,
      "체육": 7431,
      "체크": 7432,
      "체험": 7433,
      "쳐다": 7434,
      "쳐서": 7435,
      "쳤어": 7436,
      "초가": 7437,
      "초딩": 7438,
      "초록": 7439,
      "초반": 7440,
      "초밥": 7441,
      "초코": 7442,
      "초콜": 7443,
      "초반에": 7444,
      "촌에": 7445,
      "촌에서": 7446,
      "최고": 7447,
      "최대": 7448,
      "최소": 7449,
      "최악": 7450,
      "추가": 7451,
      "추륵": 7452,
      "추석": 7453,
      "추억": 7454,
      "추운": 7455,
      "추울": 7456,
      "추워": 7457,
      "추워서": 7458,
      "축구": 7459,
      "축제": 7460,
      "출근": 7461,
      "출발": 7462,
      "춤추": 7463,
      "충격": 7464,
      "충전": 7465,
      "취미": 7466,
      "취소": 7467,
      "취업": 7468,
      "취직": 7469,
      "치가": 7470,
      "치과": 7471,
      "치기": 7472,
      "치도": 7473,
      "치를": 7474,
      "치마": 7475,
      "치매": 7476,
      "치우": 7477,
      "치워": 7478,
      "치즈": 7479,
      "치지": 7480,
      "치킨": 7481,
      "친정": 7482,
      "친척": 7483,
      "친한": 7484,
      "친해": 7485,
      "칠십": 7486,
      "침대": 7487,
      "칭찬": 7488,
      "카레": 7489,
      "카톡": 7490,
      "카페": 7491,
      "카메라": 7492,
      "카카오": 7493,
      "칼로": 7494,
      "캠핑": 7495,
      "커라": 7496,
      "커서": 7497,
      "커플": 7498,
      "커피": 7499,
      "컴퓨터": 7500,
      "코스": 7501,
      "코로나": 7502,
      "코로나가": 7503,
      "콜라": 7504,
      "콩나물": 7505,
      "쿠가": 7506,
      "쿠과": 7507,
      "크게": 7508,
      "크고": 7509,
      "크냐": 7510,
      "크림": 7511,
      "큰거": 7512,
      "큰게": 7513,
      "큰아": 7514,
      "큰일": 7515,
      "키가": 7516,
      "키도": 7517,
      "키운": 7518,
      "키울": 7519,
      "키워": 7520,
      "키웠": 7521,
      "킬로": 7522,
      "타는": 7523,
      "타리": 7524,
      "타면": 7525,
      "타서": 7526,
      "타이": 7527,
      "타임": 7528,
      "탁탁": 7529,
      "탑동": 7530,
      "태국": 7531,
      "태워": 7532,
      "태풍": 7533,
      "태어나": 7534,
      "택배": 7535,
      "택시": 7536,
      "터져": 7537,
      "터졌": 7538,
      "터진": 7539,
      "털어": 7540,
      "테주": 7541,
      "테레비": 7542,
      "텔레비": 7543,
      "토끼": 7544,
      "토익": 7545,
      "토요일": 7546,
      "토요일날": 7547,
      "톡톡": 7548,
      "통에": 7549,
      "통이": 7550,
      "통화": 7551,
      "퇴근": 7552,
      "퇴직": 7553,
      "투자": 7554,
      "튀김": 7555,
      "튀어나": 7556,
      "트가": 7557,
      "트도": 7558,
      "트럭": 7559,
      "트로": 7560,
      "트를": 7561,
      "특별": 7562,
      "특이": 7563,
      "특히": 7564,
      "틀려": 7565,
      "틀리": 7566,
      "틀린": 7567,
      "틀어": 7568,
      "티비": 7569,
      "파는": 7570,
      "파란": 7571,
      "파마": 7572,
      "파티": 7573,
      "팍팍": 7574,
      "판에": 7575,
      "팔고": 7576,
      "팔십": 7577,
      "팔아": 7578,
      "팔았": 7579,
      "팔천": 7580,
      "팔아서": 7581,
      "팡이": 7582,
      "팡팡": 7583,
      "패딩": 7584,
      "펜션": 7585,
      "편지": 7586,
      "편한": 7587,
      "편해": 7588,
      "편하게": 7589,
      "평상": 7590,
      "평생": 7591,
      "포기": 7592,
      "포장": 7593,
      "포함": 7594,
      "표선": 7595,
      "표정": 7596,
      "표현": 7597,
      "풀어": 7598,
      "프리": 7599,
      "프로그": 7600,
      "피가": 7601,
      "피곤": 7602,
      "피부": 7603,
      "피스": 7604,
      "피시": 7605,
      "피자": 7606,
      "피티": 7607,
      "피해": 7608,
      "피부가": 7609,
      "피아노": 7610,
      "핑계": 7611,
      "하겠": 7612,
      "하늘": 7613,
      "하대": 7614,
      "하댄": 7615,
      "하던": 7616,
      "하도": 7617,
      "하든": 7618,
      "하시": 7619,
      "하얀": 7620,
      "하얗": 7621,
      "하이": 7622,
      "하진": 7623,
      "하켄": 7624,
      "하다고": 7625,
      "하주게": 7626,
      "하나가": 7627,
      "하겠어": 7628,
      "하드라": 7629,
      "하거나": 7630,
      "하더니": 7631,
      "하던데": 7632,
      "하자고": 7633,
      "하겠지": 7634,
      "하겠다고": 7635,
      "하냐고": 7636,
      "하길래": 7637,
      "하던디": 7638,
      "하드라고": 7639,
      "학과": 7640,
      "학기": 7641,
      "학점": 7642,
      "학부모": 7643,
      "한가": 7644,
      "한국": 7645,
      "한글": 7646,
      "한달": 7647,
      "한두": 7648,
      "한림": 7649,
      "한명": 7650,
      "한복": 7651,
      "한잔": 7652,
      "한지": 7653,
      "한쪽": 7654,
      "한참": 7655,
      "한창": 7656,
      "한텐": 7657,
      "한티": 7658,
      "한시간": 7659,
      "한다는": 7660,
      "한동안": 7661,
      "한국인": 7662,
      "한꺼번에": 7663,
      "할게": 7664,
      "할래": 7665,
      "할수": 7666,
      "할인": 7667,
      "할지": 7668,
      "할아버": 7669,
      "할거라": 7670,
      "할건데": 7671,
      "할때는": 7672,
      "함덕": 7673,
      "함부로": 7674,
      "합격": 7675,
      "합디다": 7676,
      "항상": 7677,
      "해결": 7678,
      "해나": 7679,
      "해났": 7680,
      "해네": 7681,
      "해녀": 7682,
      "해놓": 7683,
      "해놔": 7684,
      "해놨": 7685,
      "해먹": 7686,
      "해보": 7687,
      "해본": 7688,
      "해볼": 7689,
      "해봐": 7690,
      "해봔": 7691,
      "해봤": 7692,
      "해불": 7693,
      "해사": 7694,
      "해안": 7695,
      "해연": 7696,
      "해준": 7697,
      "해줄": 7698,
      "해줘": 7699,
      "해줬": 7700,
      "해진": 7701,
      "해나서": 7702,
      "해보고": 7703,
      "해보니까": 7704,
      "해봤어": 7705,
      "해버려": 7706,
      "해부러": 7707,
      "해지는": 7708,
      "해봐야": 7709,
      "해지고": 7710,
      "해갖고": 7711,
      "해사주": 7712,
      "해신가": 7713,
      "해그냉": 7714,
      "해나신디": 7715,
      "해놓고": 7716,
      "해볼까": 7717,
      "해줘야": 7718,
      "해버리면": 7719,
      "해버리니까": 7720,
      "해봤자": 7721,
      "핸게": 7722,
      "햄신디": 7723,
      "햄신가": 7724,
      "햄버거": 7725,
      "햇빛": 7726,
      "했주": 7727,
      "했으니까": 7728,
      "했수다": 7729,
      "했는디": 7730,
      "했지만": 7731,
      "했습니다": 7732,
      "했더니": 7733,
      "했는지": 7734,
      "행동": 7735,
      "행복": 7736,
      "행사": 7737,
      "행이네": 7738,
      "향이": 7739,
      "허곡": 7740,
      "허다": 7741,
      "허당": 7742,
      "허라": 7743,
      "허랜": 7744,
      "허리": 7745,
      "허벅": 7746,
      "허잰": 7747,
      "허젠": 7748,
      "허니까": 7749,
      "허는거": 7750,
      "허면은": 7751,
      "허는디": 7752,
      "헤어": 7753,
      "헤엄": 7754,
      "헬스": 7755,
      "헷갈": 7756,
      "혀서": 7757,
      "현금": 7758,
      "현대": 7759,
      "현실": 7760,
      "혈압": 7761,
      "혈액": 7762,
      "형님": 7763,
      "형부": 7764,
      "형제": 7765,
      "형님이": 7766,
      "형님은": 7767,
      "호꼼": 7768,
      "호끔": 7769,
      "호나": 7770,
      "호박": 7771,
      "호쏠": 7772,
      "호주": 7773,
      "호텔": 7774,
      "혼번": 7775,
      "홍보": 7776,
      "홍콩": 7777,
      "화나": 7778,
      "화면": 7779,
      "화점": 7780,
      "화투": 7781,
      "확인": 7782,
      "환경": 7783,
      "환자": 7784,
      "활동": 7785,
      "회의": 7786,
      "회장": 7787,
      "효과": 7788,
      "후배": 7789,
      "후에": 7790,
      "후회": 7791,
      "후라이": 7792,
      "훈련": 7793,
      "훨씬": 7794,
      "휴가": 7795,
      "휴학": 7796,
      "흔들": 7797,
      "흘러": 7798,
      "히고": 7799,
      "히는": 7800,
      "힘드": 7801,
      "힘든": 7802,
      "힘이": 7803,
      "힘들어": 7804,
      "힘들어서": 7805,
      "100": 7806,
      "101": 7807,
      "102": 7808,
      "103": 7809,
      "104": 7810,
      "105": 7811,
      "106": 7812,
      "107": 7813,
      "108": 7814,
      "109": 7815,
      "1010": 7816,
      "1012": 7817,
      "1013": 7818,
      "1014": 7819,
      "1015": 7820,
      "1016": 7821,
      "1017": 7822,
      "1018": 7823,
      "1019": 7824,
      "1020": 7825,
      "1023": 7826,
      "1024": 7827,
      "1025": 7828,
      "1026": 7829,
      "1027": 7830,
      "1028": 7831,
      "1029": 7832,
      "1030": 7833,
      "1034": 7834,
      "1035": 7835,
      "1036": 7836,
      "1037": 7837,
      "1038": 7838,
      "1039": 7839,
      "1040": 7840,
      "1045": 7841,
      "1046": 7842,
      "1047": 7843,
      "1048": 7844,
      "1049": 7845,
      "1050": 7846,
      "1056": 7847,
      "1057": 7848,
      "1058": 7849,
      "1059": 7850,
      "1060": 7851,
      "1067": 7852,
      "1068": 7853,
      "1069": 7854,
      "1070": 7855,
      "1078": 7856,
      "1079": 7857,
      "1080": 7858,
      "1089": 7859,
      "1090": 7860,
      "1088": 7861,
      "1077": 7862,
      "1066": 7863,
      "1099": 7864,
      "1055": 7865,
      "1044": 7866,
      "1033": 7867,
      "1022": 7868,
      "1098": 7869,
      "1011": 7870,
      "1076": 7871,
      "1054": 7872,
      "1087": 7873,
      "1097": 7874,
      "1086": 7875,
      "1096": 7876,
      "1032": 7877,
      "1065": 7878,
      "1075": 7879,
      "1043": 7880,
      "1085": 7881,
      "1095": 7882,
      "1064": 7883,
      "1074": 7884,
      "1084": 7885,
      "1021": 7886,
      "1053": 7887,
      "1094": 7888,
      "1063": 7889,
      "1073": 7890,
      "1042": 7891,
      "1031": 7892,
      "1052": 7893,
      "1083": 7894,
      "1093": 7895,
      "1062": 7896,
      "1072": 7897,
      "1041": 7898,
      "1051": 7899,
      "1082": 7900,
      "1092": 7901,
      "1061": 7902,
      "1071": 7903,
      "1081": 7904,
      "1091": 7905,
      "1000": 7906,
      "1001": 7907,
      "1002": 7908,
      "1003": 7909,
      "1004": 7910,
      "1005": 7911,
      "1006": 7912,
      "1007": 7913,
      "1008": 7914,
      "1009": 7915,
      "120": 7916,
      "121": 7917,
      "122": 7918,
      "123": 7919,
      "124": 7920,
      "125": 7921,
      "126": 7922,
      "127": 7923,
      "128": 7924,
      "129": 7925,
      "1210": 7926,
      "1212": 7927,
      "1213": 7928,
      "1214": 7929,
      "1215": 7930,
      "1216": 7931,
      "1217": 7932,
      "1218": 7933,
      "1219": 7934,
      "1220": 7935,
      "1223": 7936,
      "1224": 7937,
      "1225": 7938,
      "1226": 7939,
      "1227": 7940,
      "1228": 7941,
      "1229": 7942,
      "1230": 7943,
      "1234": 7944,
      "1235": 7945,
      "1236": 7946,
      "1237": 7947,
      "1238": 7948,
      "1239": 7949,
      "1240": 7950,
      "1245": 7951,
      "1246": 7952,
      "1247": 7953,
      "1248": 7954,
      "1249": 7955,
      "1250": 7956,
      "1256": 7957,
      "1257": 7958,
      "1258": 7959,
      "1259": 7960,
      "1260": 7961,
      "1267": 7962,
      "1268": 7963,
      "1269": 7964,
      "1270": 7965,
      "1278": 7966,
      "1279": 7967,
      "1280": 7968,
      "1289": 7969,
      "1290": 7970,
      "1288": 7971,
      "1277": 7972,
      "1266": 7973,
      "1299": 7974,
      "1255": 7975,
      "1244": 7976,
      "1233": 7977,
      "1222": 7978,
      "1298": 7979,
      "1211": 7980,
      "1276": 7981,
      "1254": 7982,
      "1287": 7983,
      "1297": 7984,
      "1286": 7985,
      "1296": 7986,
      "1232": 7987,
      "1265": 7988,
      "1275": 7989,
      "1243": 7990,
      "1285": 7991,
      "1295": 7992,
      "1264": 7993,
      "1274": 7994,
      "1284": 7995,
      "1221": 7996,
      "1253": 7997,
      "1294": 7998,
      "1263": 7999,
      "1273": 8000,
      "1242": 8001,
      "1231": 8002,
      "1252": 8003,
      "1283": 8004,
      "1293": 8005,
      "1262": 8006,
      "1272": 8007,
      "1241": 8008,
      "1251": 8009,
      "1282": 8010,
      "1292": 8011,
      "1261": 8012,
      "1271": 8013,
      "1281": 8014,
      "1291": 8015,
      "1200": 8016,
      "1201": 8017,
      "1202": 8018,
      "1203": 8019,
      "1204": 8020,
      "1205": 8021,
      "1206": 8022,
      "1207": 8023,
      "1208": 8024,
      "1209": 8025,
      "130": 8026,
      "131": 8027,
      "132": 8028,
      "133": 8029,
      "134": 8030,
      "135": 8031,
      "136": 8032,
      "137": 8033,
      "138": 8034,
      "139": 8035,
      "1310": 8036,
      "1312": 8037,
      "1313": 8038,
      "1314": 8039,
      "1315": 8040,
      "1316": 8041,
      "1317": 8042,
      "1318": 8043,
      "1319": 8044,
      "1320": 8045,
      "1323": 8046,
      "1324": 8047,
      "1325": 8048,
      "1326": 8049,
      "1327": 8050,
      "1328": 8051,
      "1329": 8052,
      "1330": 8053,
      "1334": 8054,
      "1335": 8055,
      "1336": 8056,
      "1337": 8057,
      "1338": 8058,
      "1339": 8059,
      "1340": 8060,
      "1345": 8061,
      "1346": 8062,
      "1347": 8063,
      "1348": 8064,
      "1349": 8065,
      "1350": 8066,
      "1356": 8067,
      "1357": 8068,
      "1358": 8069,
      "1359": 8070,
      "1360": 8071,
      "1367": 8072,
      "1368": 8073,
      "1369": 8074,
      "1370": 8075,
      "1378": 8076,
      "1379": 8077,
      "1380": 8078,
      "1389": 8079,
      "1390": 8080,
      "1388": 8081,
      "1377": 8082,
      "1366": 8083,
      "1399": 8084,
      "1355": 8085,
      "1344": 8086,
      "1333": 8087,
      "1322": 8088,
      "1398": 8089,
      "1311": 8090,
      "1376": 8091,
      "1354": 8092,
      "1387": 8093,
      "1397": 8094,
      "1386": 8095,
      "1396": 8096,
      "1332": 8097,
      "1365": 8098,
      "1375": 8099,
      "1343": 8100,
      "1385": 8101,
      "1395": 8102,
      "1364": 8103,
      "1374": 8104,
      "1384": 8105,
      "1321": 8106,
      "1353": 8107,
      "1394": 8108,
      "1363": 8109,
      "1373": 8110,
      "1342": 8111,
      "1331": 8112,
      "1352": 8113,
      "1383": 8114,
      "1393": 8115,
      "1362": 8116,
      "1372": 8117,
      "1341": 8118,
      "1351": 8119,
      "1382": 8120,
      "1392": 8121,
      "1361": 8122,
      "1371": 8123,
      "1381": 8124,
      "1391": 8125,
      "1300": 8126,
      "1301": 8127,
      "1302": 8128,
      "1303": 8129,
      "1304": 8130,
      "1305": 8131,
      "1306": 8132,
      "1307": 8133,
      "1308": 8134,
      "1309": 8135,
      "140": 8136,
      "141": 8137,
      "142": 8138,
      "143": 8139,
      "144": 8140,
      "145": 8141,
      "146": 8142,
      "147": 8143,
      "148": 8144,
      "149": 8145,
      "1410": 8146,
      "1412": 8147,
      "1413": 8148,
      "1414": 8149,
      "1415": 8150,
      "1416": 8151,
      "1417": 8152,
      "1418": 8153,
      "1419": 8154,
      "1420": 8155,
      "1423": 8156,
      "1424": 8157,
      "1425": 8158,
      "1426": 8159,
      "1427": 8160,
      "1428": 8161,
      "1429": 8162,
      "1430": 8163,
      "1434": 8164,
      "1435": 8165,
      "1436": 8166,
      "1437": 8167,
      "1438": 8168,
      "1439": 8169,
      "1440": 8170,
      "1445": 8171,
      "1446": 8172,
      "1447": 8173,
      "1448": 8174,
      "1449": 8175,
      "1450": 8176,
      "1456": 8177,
      "1457": 8178,
      "1458": 8179,
      "1459": 8180,
      "1460": 8181,
      "1467": 8182,
      "1468": 8183,
      "1469": 8184,
      "1470": 8185,
      "1478": 8186,
      "1479": 8187,
      "1480": 8188,
      "1489": 8189,
      "1490": 8190,
      "1488": 8191,
      "1477": 8192,
      "1466": 8193,
      "1499": 8194,
      "1455": 8195,
      "1444": 8196,
      "1433": 8197,
      "1422": 8198,
      "1498": 8199,
      "1411": 8200,
      "1476": 8201,
      "1454": 8202,
      "1487": 8203,
      "1497": 8204,
      "1486": 8205,
      "1496": 8206,
      "1432": 8207,
      "1465": 8208,
      "1475": 8209,
      "1443": 8210,
      "1485": 8211,
      "1495": 8212,
      "1464": 8213,
      "1474": 8214,
      "1484": 8215,
      "1421": 8216,
      "1453": 8217,
      "1494": 8218,
      "1463": 8219,
      "1473": 8220,
      "1442": 8221,
      "1431": 8222,
      "1452": 8223,
      "1483": 8224,
      "1493": 8225,
      "1462": 8226,
      "1472": 8227,
      "1441": 8228,
      "1451": 8229,
      "1482": 8230,
      "1492": 8231,
      "1461": 8232,
      "1471": 8233,
      "1481": 8234,
      "1491": 8235,
      "1400": 8236,
      "1401": 8237,
      "1402": 8238,
      "1403": 8239,
      "1404": 8240,
      "1405": 8241,
      "1406": 8242,
      "1407": 8243,
      "1408": 8244,
      "1409": 8245,
      "150": 8246,
      "151": 8247,
      "152": 8248,
      "153": 8249,
      "154": 8250,
      "155": 8251,
      "156": 8252,
      "157": 8253,
      "158": 8254,
      "159": 8255,
      "1510": 8256,
      "1512": 8257,
      "1513": 8258,
      "1514": 8259,
      "1515": 8260,
      "1516": 8261,
      "1517": 8262,
      "1518": 8263,
      "1519": 8264,
      "1520": 8265,
      "1523": 8266,
      "1524": 8267,
      "1525": 8268,
      "1526": 8269,
      "1527": 8270,
      "1528": 8271,
      "1529": 8272,
      "1530": 8273,
      "1534": 8274,
      "1535": 8275,
      "1536": 8276,
      "1537": 8277,
      "1538": 8278,
      "1539": 8279,
      "1540": 8280,
      "1545": 8281,
      "1546": 8282,
      "1547": 8283,
      "1548": 8284,
      "1549": 8285,
      "1550": 8286,
      "1556": 8287,
      "1557": 8288,
      "1558": 8289,
      "1559": 8290,
      "1560": 8291,
      "1567": 8292,
      "1568": 8293,
      "1569": 8294,
      "1570": 8295,
      "1578": 8296,
      "1579": 8297,
      "1580": 8298,
      "1589": 8299,
      "1590": 8300,
      "1588": 8301,
      "1577": 8302,
      "1566": 8303,
      "1599": 8304,
      "1555": 8305,
      "1544": 8306,
      "1533": 8307,
      "1522": 8308,
      "1598": 8309,
      "1511": 8310,
      "1576": 8311,
      "1554": 8312,
      "1587": 8313,
      "1597": 8314,
      "1586": 8315,
      "1596": 8316,
      "1532": 8317,
      "1565": 8318,
      "1575": 8319,
      "1543": 8320,
      "1585": 8321,
      "1595": 8322,
      "1564": 8323,
      "1574": 8324,
      "1584": 8325,
      "1521": 8326,
      "1553": 8327,
      "1594": 8328,
      "1563": 8329,
      "1573": 8330,
      "1542": 8331,
      "1531": 8332,
      "1552": 8333,
      "1583": 8334,
      "1593": 8335,
      "1562": 8336,
      "1572": 8337,
      "1541": 8338,
      "1551": 8339,
      "1582": 8340,
      "1592": 8341,
      "1561": 8342,
      "1571": 8343,
      "1581": 8344,
      "1591": 8345,
      "1500": 8346,
      "1501": 8347,
      "1502": 8348,
      "1503": 8349,
      "1504": 8350,
      "1505": 8351,
      "1506": 8352,
      "1507": 8353,
      "1508": 8354,
      "1509": 8355,
      "160": 8356,
      "161": 8357,
      "162": 8358,
      "163": 8359,
      "164": 8360,
      "165": 8361,
      "166": 8362,
      "167": 8363,
      "168": 8364,
      "169": 8365,
      "1610": 8366,
      "1612": 8367,
      "1613": 8368,
      "1614": 8369,
      "1615": 8370,
      "1616": 8371,
      "1617": 8372,
      "1618": 8373,
      "1619": 8374,
      "1620": 8375,
      "1623": 8376,
      "1624": 8377,
      "1625": 8378,
      "1626": 8379,
      "1627": 8380,
      "1628": 8381,
      "1629": 8382,
      "1630": 8383,
      "1634": 8384,
      "1635": 8385,
      "1636": 8386,
      "1637": 8387,
      "1638": 8388,
      "1639": 8389,
      "1640": 8390,
      "1645": 8391,
      "1646": 8392,
      "1647": 8393,
      "1648": 8394,
      "1649": 8395,
      "1650": 8396,
      "1656": 8397,
      "1657": 8398,
      "1658": 8399,
      "1659": 8400,
      "1660": 8401,
      "1667": 8402,
      "1668": 8403,
      "1669": 8404,
      "1670": 8405,
      "1678": 8406,
      "1679": 8407,
      "1680": 8408,
      "1689": 8409,
      "1690": 8410,
      "1688": 8411,
      "1677": 8412,
      "1666": 8413,
      "1699": 8414,
      "1655": 8415,
      "1644": 8416,
      "1633": 8417,
      "1622": 8418,
      "1698": 8419,
      "1611": 8420,
      "1676": 8421,
      "1654": 8422,
      "1687": 8423,
      "1697": 8424,
      "1686": 8425,
      "1696": 8426,
      "1632": 8427,
      "1665": 8428,
      "1675": 8429,
      "1643": 8430,
      "1685": 8431,
      "1695": 8432,
      "1664": 8433,
      "1674": 8434,
      "1684": 8435,
      "1621": 8436,
      "1653": 8437,
      "1694": 8438,
      "1663": 8439,
      "1673": 8440,
      "1642": 8441,
      "1631": 8442,
      "1652": 8443,
      "1683": 8444,
      "1693": 8445,
      "1662": 8446,
      "1672": 8447,
      "1641": 8448,
      "1651": 8449,
      "1682": 8450,
      "1692": 8451,
      "1661": 8452,
      "1671": 8453,
      "1681": 8454,
      "1691": 8455,
      "1600": 8456,
      "1601": 8457,
      "1602": 8458,
      "1603": 8459,
      "1604": 8460,
      "1605": 8461,
      "1606": 8462,
      "1607": 8463,
      "1608": 8464,
      "1609": 8465,
      "170": 8466,
      "171": 8467,
      "172": 8468,
      "173": 8469,
      "174": 8470,
      "175": 8471,
      "176": 8472,
      "177": 8473,
      "178": 8474,
      "179": 8475,
      "1710": 8476,
      "1712": 8477,
      "1713": 8478,
      "1714": 8479,
      "1715": 8480,
      "1716": 8481,
      "1717": 8482,
      "1718": 8483,
      "1719": 8484,
      "1720": 8485,
      "1723": 8486,
      "1724": 8487,
      "1725": 8488,
      "1726": 8489,
      "1727": 8490,
      "1728": 8491,
      "1729": 8492,
      "1730": 8493,
      "1734": 8494,
      "1735": 8495,
      "1736": 8496,
      "1737": 8497,
      "1738": 8498,
      "1739": 8499,
      "1740": 8500,
      "1745": 8501,
      "1746": 8502,
      "1747": 8503,
      "1748": 8504,
      "1749": 8505,
      "1750": 8506,
      "1756": 8507,
      "1757": 8508,
      "1758": 8509,
      "1759": 8510,
      "1760": 8511,
      "1767": 8512,
      "1768": 8513,
      "1769": 8514,
      "1770": 8515,
      "1778": 8516,
      "1779": 8517,
      "1780": 8518,
      "1789": 8519,
      "1790": 8520,
      "1788": 8521,
      "1777": 8522,
      "1766": 8523,
      "1799": 8524,
      "1755": 8525,
      "1744": 8526,
      "1733": 8527,
      "1722": 8528,
      "1798": 8529,
      "1711": 8530,
      "1776": 8531,
      "1754": 8532,
      "1787": 8533,
      "1797": 8534,
      "1786": 8535,
      "1796": 8536,
      "1732": 8537,
      "1765": 8538,
      "1775": 8539,
      "1743": 8540,
      "1785": 8541,
      "1795": 8542,
      "1764": 8543,
      "1774": 8544,
      "1784": 8545,
      "1721": 8546,
      "1753": 8547,
      "1794": 8548,
      "1763": 8549,
      "1773": 8550,
      "1742": 8551,
      "1731": 8552,
      "1752": 8553,
      "1783": 8554,
      "1793": 8555,
      "1762": 8556,
      "1772": 8557,
      "1741": 8558,
      "1751": 8559,
      "1782": 8560,
      "1792": 8561,
      "1761": 8562,
      "1771": 8563,
      "1781": 8564,
      "1791": 8565,
      "1700": 8566,
      "1701": 8567,
      "1702": 8568,
      "1703": 8569,
      "1704": 8570,
      "1705": 8571,
      "1706": 8572,
      "1707": 8573,
      "1708": 8574,
      "1709": 8575,
      "180": 8576,
      "181": 8577,
      "182": 8578,
      "183": 8579,
      "184": 8580,
      "185": 8581,
      "186": 8582,
      "187": 8583,
      "188": 8584,
      "189": 8585,
      "1810": 8586,
      "1812": 8587,
      "1813": 8588,
      "1814": 8589,
      "1815": 8590,
      "1816": 8591,
      "1817": 8592,
      "1818": 8593,
      "1819": 8594,
      "1820": 8595,
      "1823": 8596,
      "1824": 8597,
      "1825": 8598,
      "1826": 8599,
      "1827": 8600,
      "1828": 8601,
      "1829": 8602,
      "1830": 8603,
      "1834": 8604,
      "1835": 8605,
      "1836": 8606,
      "1837": 8607,
      "1838": 8608,
      "1839": 8609,
      "1840": 8610,
      "1845": 8611,
      "1846": 8612,
      "1847": 8613,
      "1848": 8614,
      "1849": 8615,
      "1850": 8616,
      "1856": 8617,
      "1857": 8618,
      "1858": 8619,
      "1859": 8620,
      "1860": 8621,
      "1867": 8622,
      "1868": 8623,
      "1869": 8624,
      "1870": 8625,
      "1878": 8626,
      "1879": 8627,
      "1880": 8628,
      "1889": 8629,
      "1890": 8630,
      "1888": 8631,
      "1877": 8632,
      "1866": 8633,
      "1899": 8634,
      "1855": 8635,
      "1844": 8636,
      "1833": 8637,
      "1822": 8638,
      "1898": 8639,
      "1811": 8640,
      "1876": 8641,
      "1854": 8642,
      "1887": 8643,
      "1897": 8644,
      "1886": 8645,
      "1896": 8646,
      "1832": 8647,
      "1865": 8648,
      "1875": 8649,
      "1843": 8650,
      "1885": 8651,
      "1895": 8652,
      "1864": 8653,
      "1874": 8654,
      "1884": 8655,
      "1821": 8656,
      "1853": 8657,
      "1894": 8658,
      "1863": 8659,
      "1873": 8660,
      "1842": 8661,
      "1831": 8662,
      "1852": 8663,
      "1883": 8664,
      "1893": 8665,
      "1862": 8666,
      "1872": 8667,
      "1841": 8668,
      "1851": 8669,
      "1882": 8670,
      "1892": 8671,
      "1861": 8672,
      "1871": 8673,
      "1881": 8674,
      "1891": 8675,
      "1800": 8676,
      "1801": 8677,
      "1802": 8678,
      "1803": 8679,
      "1804": 8680,
      "1805": 8681,
      "1806": 8682,
      "1807": 8683,
      "1808": 8684,
      "1809": 8685,
      "190": 8686,
      "191": 8687,
      "192": 8688,
      "193": 8689,
      "194": 8690,
      "195": 8691,
      "196": 8692,
      "197": 8693,
      "198": 8694,
      "199": 8695,
      "1910": 8696,
      "1912": 8697,
      "1913": 8698,
      "1914": 8699,
      "1915": 8700,
      "1916": 8701,
      "1917": 8702,
      "1918": 8703,
      "1919": 8704,
      "1920": 8705,
      "1923": 8706,
      "1924": 8707,
      "1925": 8708,
      "1926": 8709,
      "1927": 8710,
      "1928": 8711,
      "1929": 8712,
      "1930": 8713,
      "1934": 8714,
      "1935": 8715,
      "1936": 8716,
      "1937": 8717,
      "1938": 8718,
      "1939": 8719,
      "1940": 8720,
      "1945": 8721,
      "1946": 8722,
      "1947": 8723,
      "1948": 8724,
      "1949": 8725,
      "1950": 8726,
      "1956": 8727,
      "1957": 8728,
      "1958": 8729,
      "1959": 8730,
      "1960": 8731,
      "1967": 8732,
      "1968": 8733,
      "1969": 8734,
      "1970": 8735,
      "1978": 8736,
      "1979": 8737,
      "1980": 8738,
      "1989": 8739,
      "1990": 8740,
      "1988": 8741,
      "1977": 8742,
      "1966": 8743,
      "1999": 8744,
      "1955": 8745,
      "1944": 8746,
      "1933": 8747,
      "1922": 8748,
      "1998": 8749,
      "1911": 8750,
      "1976": 8751,
      "1954": 8752,
      "1987": 8753,
      "1997": 8754,
      "1986": 8755,
      "1996": 8756,
      "1932": 8757,
      "1965": 8758,
      "1975": 8759,
      "1943": 8760,
      "1985": 8761,
      "1995": 8762,
      "1964": 8763,
      "1974": 8764,
      "1984": 8765,
      "1921": 8766,
      "1953": 8767,
      "1994": 8768,
      "1963": 8769,
      "1973": 8770,
      "1942": 8771,
      "1931": 8772,
      "1952": 8773,
      "1983": 8774,
      "1993": 8775,
      "1962": 8776,
      "1972": 8777,
      "1941": 8778,
      "1951": 8779,
      "1982": 8780,
      "1992": 8781,
      "1961": 8782,
      "1971": 8783,
      "1981": 8784,
      "1991": 8785,
      "1900": 8786,
      "1901": 8787,
      "1902": 8788,
      "1903": 8789,
      "1904": 8790,
      "1905": 8791,
      "1906": 8792,
      "1907": 8793,
      "1908": 8794,
      "1909": 8795,
      "200": 8796,
      "201": 8797,
      "202": 8798,
      "203": 8799,
      "204": 8800,
      "205": 8801,
      "206": 8802,
      "207": 8803,
      "208": 8804,
      "209": 8805,
      "2010": 8806,
      "2012": 8807,
      "2013": 8808,
      "2014": 8809,
      "2015": 8810,
      "2016": 8811,
      "2017": 8812,
      "2018": 8813,
      "2019": 8814,
      "2020": 8815,
      "2023": 8816,
      "2024": 8817,
      "2025": 8818,
      "2026": 8819,
      "2027": 8820,
      "2028": 8821,
      "2029": 8822,
      "2030": 8823,
      "2034": 8824,
      "2035": 8825,
      "2036": 8826,
      "2037": 8827,
      "2038": 8828,
      "2039": 8829,
      "2040": 8830,
      "2045": 8831,
      "2046": 8832,
      "2047": 8833,
      "2048": 8834,
      "2049": 8835,
      "2050": 8836,
      "2056": 8837,
      "2057": 8838,
      "2058": 8839,
      "2059": 8840,
      "2060": 8841,
      "2067": 8842,
      "2068": 8843,
      "2069": 8844,
      "2070": 8845,
      "2078": 8846,
      "2079": 8847,
      "2080": 8848,
      "2089": 8849,
      "2090": 8850,
      "2088": 8851,
      "2077": 8852,
      "2066": 8853,
      "2099": 8854,
      "2055": 8855,
      "2044": 8856,
      "2033": 8857,
      "2022": 8858,
      "2098": 8859,
      "2011": 8860,
      "2076": 8861,
      "2054": 8862,
      "2087": 8863,
      "2097": 8864,
      "2086": 8865,
      "2096": 8866,
      "2032": 8867,
      "2065": 8868,
      "2075": 8869,
      "2043": 8870,
      "2085": 8871,
      "2095": 8872,
      "2064": 8873,
      "2074": 8874,
      "2084": 8875,
      "2021": 8876,
      "2053": 8877,
      "2094": 8878,
      "2063": 8879,
      "2073": 8880,
      "2042": 8881,
      "2031": 8882,
      "2052": 8883,
      "2083": 8884,
      "2093": 8885,
      "2062": 8886,
      "2072": 8887,
      "2041": 8888,
      "2051": 8889,
      "2082": 8890,
      "2092": 8891,
      "2061": 8892,
      "2071": 8893,
      "2081": 8894,
      "2091": 8895,
      "2000": 8896,
      "2001": 8897,
      "2002": 8898,
      "2003": 8899,
      "2004": 8900,
      "2005": 8901,
      "2006": 8902,
      "2007": 8903,
      "2008": 8904,
      "2009": 8905,
      "230": 8906,
      "231": 8907,
      "232": 8908,
      "233": 8909,
      "234": 8910,
      "235": 8911,
      "236": 8912,
      "237": 8913,
      "238": 8914,
      "239": 8915,
      "2310": 8916,
      "2312": 8917,
      "2313": 8918,
      "2314": 8919,
      "2315": 8920,
      "2316": 8921,
      "2317": 8922,
      "2318": 8923,
      "2319": 8924,
      "2320": 8925,
      "2323": 8926,
      "2324": 8927,
      "2325": 8928,
      "2326": 8929,
      "2327": 8930,
      "2328": 8931,
      "2329": 8932,
      "2330": 8933,
      "2334": 8934,
      "2335": 8935,
      "2336": 8936,
      "2337": 8937,
      "2338": 8938,
      "2339": 8939,
      "2340": 8940,
      "2345": 8941,
      "2346": 8942,
      "2347": 8943,
      "2348": 8944,
      "2349": 8945,
      "2350": 8946,
      "2356": 8947,
      "2357": 8948,
      "2358": 8949,
      "2359": 8950,
      "2360": 8951,
      "2367": 8952,
      "2368": 8953,
      "2369": 8954,
      "2370": 8955,
      "2378": 8956,
      "2379": 8957,
      "2380": 8958,
      "2389": 8959,
      "2390": 8960,
      "2388": 8961,
      "2377": 8962,
      "2366": 8963,
      "2399": 8964,
      "2355": 8965,
      "2344": 8966,
      "2333": 8967,
      "2322": 8968,
      "2398": 8969,
      "2311": 8970,
      "2376": 8971,
      "2354": 8972,
      "2387": 8973,
      "2397": 8974,
      "2386": 8975,
      "2396": 8976,
      "2332": 8977,
      "2365": 8978,
      "2375": 8979,
      "2343": 8980,
      "2385": 8981,
      "2395": 8982,
      "2364": 8983,
      "2374": 8984,
      "2384": 8985,
      "2321": 8986,
      "2353": 8987,
      "2394": 8988,
      "2363": 8989,
      "2373": 8990,
      "2342": 8991,
      "2331": 8992,
      "2352": 8993,
      "2383": 8994,
      "2393": 8995,
      "2362": 8996,
      "2372": 8997,
      "2341": 8998,
      "2351": 8999,
      "2382": 9000,
      "2392": 9001,
      "2361": 9002,
      "2371": 9003,
      "2381": 9004,
      "2391": 9005,
      "2300": 9006,
      "2301": 9007,
      "2302": 9008,
      "2303": 9009,
      "2304": 9010,
      "2305": 9011,
      "2306": 9012,
      "2307": 9013,
      "2308": 9014,
      "2309": 9015,
      "240": 9016,
      "241": 9017,
      "242": 9018,
      "243": 9019,
      "244": 9020,
      "245": 9021,
      "246": 9022,
      "247": 9023,
      "248": 9024,
      "249": 9025,
      "2410": 9026,
      "2412": 9027,
      "2413": 9028,
      "2414": 9029,
      "2415": 9030,
      "2416": 9031,
      "2417": 9032,
      "2418": 9033,
      "2419": 9034,
      "2420": 9035,
      "2423": 9036,
      "2424": 9037,
      "2425": 9038,
      "2426": 9039,
      "2427": 9040,
      "2428": 9041,
      "2429": 9042,
      "2430": 9043,
      "2434": 9044,
      "2435": 9045,
      "2436": 9046,
      "2437": 9047,
      "2438": 9048,
      "2439": 9049,
      "2440": 9050,
      "2445": 9051,
      "2446": 9052,
      "2447": 9053,
      "2448": 9054,
      "2449": 9055,
      "2450": 9056,
      "2456": 9057,
      "2457": 9058,
      "2458": 9059,
      "2459": 9060,
      "2460": 9061,
      "2467": 9062,
      "2468": 9063,
      "2469": 9064,
      "2470": 9065,
      "2478": 9066,
      "2479": 9067,
      "2480": 9068,
      "2489": 9069,
      "2490": 9070,
      "2488": 9071,
      "2477": 9072,
      "2466": 9073,
      "2499": 9074,
      "2455": 9075,
      "2444": 9076,
      "2433": 9077,
      "2422": 9078,
      "2498": 9079,
      "2411": 9080,
      "2476": 9081,
      "2454": 9082,
      "2487": 9083,
      "2497": 9084,
      "2486": 9085,
      "2496": 9086,
      "2432": 9087,
      "2465": 9088,
      "2475": 9089,
      "2443": 9090,
      "2485": 9091,
      "2495": 9092,
      "2464": 9093,
      "2474": 9094,
      "2484": 9095,
      "2421": 9096,
      "2453": 9097,
      "2494": 9098,
      "2463": 9099,
      "2473": 9100,
      "2442": 9101,
      "2431": 9102,
      "2452": 9103,
      "2483": 9104,
      "2493": 9105,
      "2462": 9106,
      "2472": 9107,
      "2441": 9108,
      "2451": 9109,
      "2482": 9110,
      "2492": 9111,
      "2461": 9112,
      "2471": 9113,
      "2481": 9114,
      "2491": 9115,
      "2400": 9116,
      "2401": 9117,
      "2402": 9118,
      "2403": 9119,
      "2404": 9120,
      "2405": 9121,
      "2406": 9122,
      "2407": 9123,
      "2408": 9124,
      "2409": 9125,
      "250": 9126,
      "251": 9127,
      "252": 9128,
      "253": 9129,
      "254": 9130,
      "255": 9131,
      "256": 9132,
      "257": 9133,
      "258": 9134,
      "259": 9135,
      "2510": 9136,
      "2512": 9137,
      "2513": 9138,
      "2514": 9139,
      "2515": 9140,
      "2516": 9141,
      "2517": 9142,
      "2518": 9143,
      "2519": 9144,
      "2520": 9145,
      "2523": 9146,
      "2524": 9147,
      "2525": 9148,
      "2526": 9149,
      "2527": 9150,
      "2528": 9151,
      "2529": 9152,
      "2530": 9153,
      "2534": 9154,
      "2535": 9155,
      "2536": 9156,
      "2537": 9157,
      "2538": 9158,
      "2539": 9159,
      "2540": 9160,
      "2545": 9161,
      "2546": 9162,
      "2547": 9163,
      "2548": 9164,
      "2549": 9165,
      "2550": 9166,
      "2556": 9167,
      "2557": 9168,
      "2558": 9169,
      "2559": 9170,
      "2560": 9171,
      "2567": 9172,
      "2568": 9173,
      "2569": 9174,
      "2570": 9175,
      "2578": 9176,
      "2579": 9177,
      "2580": 9178,
      "2589": 9179,
      "2590": 9180,
      "2588": 9181,
      "2577": 9182,
      "2566": 9183,
      "2599": 9184,
      "2555": 9185,
      "2544": 9186,
      "2533": 9187,
      "2522": 9188,
      "2598": 9189,
      "2511": 9190,
      "2576": 9191,
      "2554": 9192,
      "2587": 9193,
      "2597": 9194,
      "2586": 9195,
      "2596": 9196,
      "2532": 9197,
      "2565": 9198,
      "2575": 9199,
      "2543": 9200,
      "2585": 9201,
      "2595": 9202,
      "2564": 9203,
      "2574": 9204,
      "2584": 9205,
      "2521": 9206,
      "2553": 9207,
      "2594": 9208,
      "2563": 9209,
      "2573": 9210,
      "2542": 9211,
      "2531": 9212,
      "2552": 9213,
      "2583": 9214,
      "2593": 9215,
      "2562": 9216,
      "2572": 9217,
      "2541": 9218,
      "2551": 9219,
      "2582": 9220,
      "2592": 9221,
      "2561": 9222,
      "2571": 9223,
      "2581": 9224,
      "2591": 9225,
      "2500": 9226,
      "2501": 9227,
      "2502": 9228,
      "2503": 9229,
      "2504": 9230,
      "2505": 9231,
      "2506": 9232,
      "2507": 9233,
      "2508": 9234,
      "2509": 9235,
      "260": 9236,
      "261": 9237,
      "262": 9238,
      "263": 9239,
      "264": 9240,
      "265": 9241,
      "266": 9242,
      "267": 9243,
      "268": 9244,
      "269": 9245,
      "2610": 9246,
      "2612": 9247,
      "2613": 9248,
      "2614": 9249,
      "2615": 9250,
      "2616": 9251,
      "2617": 9252,
      "2618": 9253,
      "2619": 9254,
      "2620": 9255,
      "2623": 9256,
      "2624": 9257,
      "2625": 9258,
      "2626": 9259,
      "2627": 9260,
      "2628": 9261,
      "2629": 9262,
      "2630": 9263,
      "2634": 9264,
      "2635": 9265,
      "2636": 9266,
      "2637": 9267,
      "2638": 9268,
      "2639": 9269,
      "2640": 9270,
      "2645": 9271,
      "2646": 9272,
      "2647": 9273,
      "2648": 9274,
      "2649": 9275,
      "2650": 9276,
      "2656": 9277,
      "2657": 9278,
      "2658": 9279,
      "2659": 9280,
      "2660": 9281,
      "2667": 9282,
      "2668": 9283,
      "2669": 9284,
      "2670": 9285,
      "2678": 9286,
      "2679": 9287,
      "2680": 9288,
      "2689": 9289,
      "2690": 9290,
      "2688": 9291,
      "2677": 9292,
      "2666": 9293,
      "2699": 9294,
      "2655": 9295,
      "2644": 9296,
      "2633": 9297,
      "2622": 9298,
      "2698": 9299,
      "2611": 9300,
      "2676": 9301,
      "2654": 9302,
      "2687": 9303,
      "2697": 9304,
      "2686": 9305,
      "2696": 9306,
      "2632": 9307,
      "2665": 9308,
      "2675": 9309,
      "2643": 9310,
      "2685": 9311,
      "2695": 9312,
      "2664": 9313,
      "2674": 9314,
      "2684": 9315,
      "2621": 9316,
      "2653": 9317,
      "2694": 9318,
      "2663": 9319,
      "2673": 9320,
      "2642": 9321,
      "2631": 9322,
      "2652": 9323,
      "2683": 9324,
      "2693": 9325,
      "2662": 9326,
      "2672": 9327,
      "2641": 9328,
      "2651": 9329,
      "2682": 9330,
      "2692": 9331,
      "2661": 9332,
      "2671": 9333,
      "2681": 9334,
      "2691": 9335,
      "2600": 9336,
      "2601": 9337,
      "2602": 9338,
      "2603": 9339,
      "2604": 9340,
      "2605": 9341,
      "2606": 9342,
      "2607": 9343,
      "2608": 9344,
      "2609": 9345,
      "270": 9346,
      "271": 9347,
      "272": 9348,
      "273": 9349,
      "274": 9350,
      "275": 9351,
      "276": 9352,
      "277": 9353,
      "278": 9354,
      "279": 9355,
      "2710": 9356,
      "2712": 9357,
      "2713": 9358,
      "2714": 9359,
      "2715": 9360,
      "2716": 9361,
      "2717": 9362,
      "2718": 9363,
      "2719": 9364,
      "2720": 9365,
      "2723": 9366,
      "2724": 9367,
      "2725": 9368,
      "2726": 9369,
      "2727": 9370,
      "2728": 9371,
      "2729": 9372,
      "2730": 9373,
      "2734": 9374,
      "2735": 9375,
      "2736": 9376,
      "2737": 9377,
      "2738": 9378,
      "2739": 9379,
      "2740": 9380,
      "2745": 9381,
      "2746": 9382,
      "2747": 9383,
      "2748": 9384,
      "2749": 9385,
      "2750": 9386,
      "2756": 9387,
      "2757": 9388,
      "2758": 9389,
      "2759": 9390,
      "2760": 9391,
      "2767": 9392,
      "2768": 9393,
      "2769": 9394,
      "2770": 9395,
      "2778": 9396,
      "2779": 9397,
      "2780": 9398,
      "2789": 9399,
      "2790": 9400,
      "2788": 9401,
      "2777": 9402,
      "2766": 9403,
      "2799": 9404,
      "2755": 9405,
      "2744": 9406,
      "2733": 9407,
      "2722": 9408,
      "2798": 9409,
      "2711": 9410,
      "2776": 9411,
      "2754": 9412,
      "2787": 9413,
      "2797": 9414,
      "2786": 9415,
      "2796": 9416,
      "2732": 9417,
      "2765": 9418,
      "2775": 9419,
      "2743": 9420,
      "2785": 9421,
      "2795": 9422,
      "2764": 9423,
      "2774": 9424,
      "2784": 9425,
      "2721": 9426,
      "2753": 9427,
      "2794": 9428,
      "2763": 9429,
      "2773": 9430,
      "2742": 9431,
      "2731": 9432,
      "2752": 9433,
      "2783": 9434,
      "2793": 9435,
      "2762": 9436,
      "2772": 9437,
      "2741": 9438,
      "2751": 9439,
      "2782": 9440,
      "2792": 9441,
      "2761": 9442,
      "2771": 9443,
      "2781": 9444,
      "2791": 9445,
      "2700": 9446,
      "2701": 9447,
      "2702": 9448,
      "2703": 9449,
      "2704": 9450,
      "2705": 9451,
      "2706": 9452,
      "2707": 9453,
      "2708": 9454,
      "2709": 9455,
      "280": 9456,
      "281": 9457,
      "282": 9458,
      "283": 9459,
      "284": 9460,
      "285": 9461,
      "286": 9462,
      "287": 9463,
      "288": 9464,
      "289": 9465,
      "2810": 9466,
      "2812": 9467,
      "2813": 9468,
      "2814": 9469,
      "2815": 9470,
      "2816": 9471,
      "2817": 9472,
      "2818": 9473,
      "2819": 9474,
      "2820": 9475,
      "2823": 9476,
      "2824": 9477,
      "2825": 9478,
      "2826": 9479,
      "2827": 9480,
      "2828": 9481,
      "2829": 9482,
      "2830": 9483,
      "2834": 9484,
      "2835": 9485,
      "2836": 9486,
      "2837": 9487,
      "2838": 9488,
      "2839": 9489,
      "2840": 9490,
      "2845": 9491,
      "2846": 9492,
      "2847": 9493,
      "2848": 9494,
      "2849": 9495,
      "2850": 9496,
      "2856": 9497,
      "2857": 9498,
      "2858": 9499,
      "2859": 9500,
      "2860": 9501,
      "2867": 9502,
      "2868": 9503,
      "2869": 9504,
      "2870": 9505,
      "2878": 9506,
      "2879": 9507,
      "2880": 9508,
      "2889": 9509,
      "2890": 9510,
      "2888": 9511,
      "2877": 9512,
      "2866": 9513,
      "2899": 9514,
      "2855": 9515,
      "2844": 9516,
      "2833": 9517,
      "2822": 9518,
      "2898": 9519,
      "2811": 9520,
      "2876": 9521,
      "2854": 9522,
      "2887": 9523,
      "2897": 9524,
      "2886": 9525,
      "2896": 9526,
      "2832": 9527,
      "2865": 9528,
      "2875": 9529,
      "2843": 9530,
      "2885": 9531,
      "2895": 9532,
      "2864": 9533,
      "2874": 9534,
      "2884": 9535,
      "2821": 9536,
      "2853": 9537,
      "2894": 9538,
      "2863": 9539,
      "2873": 9540,
      "2842": 9541,
      "2831": 9542,
      "2852": 9543,
      "2883": 9544,
      "2893": 9545,
      "2862": 9546,
      "2872": 9547,
      "2841": 9548,
      "2851": 9549,
      "2882": 9550,
      "2892": 9551,
      "2861": 9552,
      "2871": 9553,
      "2881": 9554,
      "2891": 9555,
      "2800": 9556,
      "2801": 9557,
      "2802": 9558,
      "2803": 9559,
      "2804": 9560,
      "2805": 9561,
      "2806": 9562,
      "2807": 9563,
      "2808": 9564,
      "2809": 9565,
      "290": 9566,
      "291": 9567,
      "292": 9568,
      "293": 9569,
      "294": 9570,
      "295": 9571,
      "296": 9572,
      "297": 9573,
      "298": 9574,
      "299": 9575,
      "2910": 9576,
      "2912": 9577,
      "2913": 9578,
      "2914": 9579,
      "2915": 9580,
      "2916": 9581,
      "2917": 9582,
      "2918": 9583,
      "2919": 9584,
      "2920": 9585,
      "2923": 9586,
      "2924": 9587,
      "2925": 9588,
      "2926": 9589,
      "2927": 9590,
      "2928": 9591,
      "2929": 9592,
      "2930": 9593,
      "2934": 9594,
      "2935": 9595,
      "2936": 9596,
      "2937": 9597,
      "2938": 9598,
      "2939": 9599,
      "2940": 9600,
      "2945": 9601,
      "2946": 9602,
      "2947": 9603,
      "2948": 9604,
      "2949": 9605,
      "2950": 9606,
      "2956": 9607,
      "2957": 9608,
      "2958": 9609,
      "2959": 9610,
      "2960": 9611,
      "2967": 9612,
      "2968": 9613,
      "2969": 9614,
      "2970": 9615,
      "2978": 9616,
      "2979": 9617,
      "2980": 9618,
      "2989": 9619,
      "2990": 9620,
      "2988": 9621,
      "2977": 9622,
      "2966": 9623,
      "2999": 9624,
      "2955": 9625,
      "2944": 9626,
      "2933": 9627,
      "2922": 9628,
      "2998": 9629,
      "2911": 9630,
      "2976": 9631,
      "2954": 9632,
      "2987": 9633,
      "2997": 9634,
      "2986": 9635,
      "2996": 9636,
      "2932": 9637,
      "2965": 9638,
      "2975": 9639,
      "2943": 9640,
      "2985": 9641,
      "2995": 9642,
      "2964": 9643,
      "2974": 9644,
      "2984": 9645,
      "2921": 9646,
      "2953": 9647,
      "2994": 9648,
      "2963": 9649,
      "2973": 9650,
      "2942": 9651,
      "2931": 9652,
      "2952": 9653,
      "2983": 9654,
      "2993": 9655,
      "2962": 9656,
      "2972": 9657,
      "2941": 9658,
      "2951": 9659,
      "2982": 9660,
      "2992": 9661,
      "2961": 9662,
      "2971": 9663,
      "2981": 9664,
      "2991": 9665,
      "2900": 9666,
      "2901": 9667,
      "2902": 9668,
      "2903": 9669,
      "2904": 9670,
      "2905": 9671,
      "2906": 9672,
      "2907": 9673,
      "2908": 9674,
      "2909": 9675,
      "300": 9676,
      "301": 9677,
      "302": 9678,
      "303": 9679,
      "304": 9680,
      "305": 9681,
      "306": 9682,
      "307": 9683,
      "308": 9684,
      "309": 9685,
      "3010": 9686,
      "3012": 9687,
      "3013": 9688,
      "3014": 9689,
      "3015": 9690,
      "3016": 9691,
      "3017": 9692,
      "3018": 9693,
      "3019": 9694,
      "3020": 9695,
      "3023": 9696,
      "3024": 9697,
      "3025": 9698,
      "3026": 9699,
      "3027": 9700,
      "3028": 9701,
      "3029": 9702,
      "3030": 9703,
      "3034": 9704,
      "3035": 9705,
      "3036": 9706,
      "3037": 9707,
      "3038": 9708,
      "3039": 9709,
      "3040": 9710,
      "3045": 9711,
      "3046": 9712,
      "3047": 9713,
      "3048": 9714,
      "3049": 9715,
      "3050": 9716,
      "3056": 9717,
      "3057": 9718,
      "3058": 9719,
      "3059": 9720,
      "3060": 9721,
      "3067": 9722,
      "3068": 9723,
      "3069": 9724,
      "3070": 9725,
      "3078": 9726,
      "3079": 9727,
      "3080": 9728,
      "3089": 9729,
      "3090": 9730,
      "3088": 9731,
      "3077": 9732,
      "3066": 9733,
      "3099": 9734,
      "3055": 9735,
      "3044": 9736,
      "3033": 9737,
      "3022": 9738,
      "3098": 9739,
      "3011": 9740,
      "3076": 9741,
      "3054": 9742,
      "3087": 9743,
      "3097": 9744,
      "3086": 9745,
      "3096": 9746,
      "3032": 9747,
      "3065": 9748,
      "3075": 9749,
      "3043": 9750,
      "3085": 9751,
      "3095": 9752,
      "3064": 9753,
      "3074": 9754,
      "3084": 9755,
      "3021": 9756,
      "3053": 9757,
      "3094": 9758,
      "3063": 9759,
      "3073": 9760,
      "3042": 9761,
      "3031": 9762,
      "3052": 9763,
      "3083": 9764,
      "3093": 9765,
      "3062": 9766,
      "3072": 9767,
      "3041": 9768,
      "3051": 9769,
      "3082": 9770,
      "3092": 9771,
      "3061": 9772,
      "3071": 9773,
      "3081": 9774,
      "3091": 9775,
      "3000": 9776,
      "3001": 9777,
      "3002": 9778,
      "3003": 9779,
      "3004": 9780,
      "3005": 9781,
      "3006": 9782,
      "3007": 9783,
      "3008": 9784,
      "3009": 9785,
      "340": 9786,
      "341": 9787,
      "342": 9788,
      "343": 9789,
      "344": 9790,
      "345": 9791,
      "346": 9792,
      "347": 9793,
      "348": 9794,
      "349": 9795,
      "3410": 9796,
      "3412": 9797,
      "3413": 9798,
      "3414": 9799,
      "3415": 9800,
      "3416": 9801,
      "3417": 9802,
      "3418": 9803,
      "3419": 9804,
      "3420": 9805,
      "3423": 9806,
      "3424": 9807,
      "3425": 9808,
      "3426": 9809,
      "3427": 9810,
      "3428": 9811,
      "3429": 9812,
      "3430": 9813,
      "3434": 9814,
      "3435": 9815,
      "3436": 9816,
      "3437": 9817,
      "3438": 9818,
      "3439": 9819,
      "3440": 9820,
      "3445": 9821,
      "3446": 9822,
      "3447": 9823,
      "3448": 9824,
      "3449": 9825,
      "3450": 9826,
      "3456": 9827,
      "3457": 9828,
      "3458": 9829,
      "3459": 9830,
      "3460": 9831,
      "3467": 9832,
      "3468": 9833,
      "3469": 9834,
      "3470": 9835,
      "3478": 9836,
      "3479": 9837,
      "3480": 9838,
      "3489": 9839,
      "3490": 9840,
      "3488": 9841,
      "3477": 9842,
      "3466": 9843,
      "3499": 9844,
      "3455": 9845,
      "3444": 9846,
      "3433": 9847,
      "3422": 9848,
      "3498": 9849,
      "3411": 9850,
      "3476": 9851,
      "3454": 9852,
      "3487": 9853,
      "3497": 9854,
      "3486": 9855,
      "3496": 9856,
      "3432": 9857,
      "3465": 9858,
      "3475": 9859,
      "3443": 9860,
      "3485": 9861,
      "3495": 9862,
      "3464": 9863,
      "3474": 9864,
      "3484": 9865,
      "3421": 9866,
      "3453": 9867,
      "3494": 9868,
      "3463": 9869,
      "3473": 9870,
      "3442": 9871,
      "3431": 9872,
      "3452": 9873,
      "3483": 9874,
      "3493": 9875,
      "3462": 9876,
      "3472": 9877,
      "3441": 9878,
      "3451": 9879,
      "3482": 9880,
      "3492": 9881,
      "3461": 9882,
      "3471": 9883,
      "3481": 9884,
      "3491": 9885,
      "3400": 9886,
      "3401": 9887,
      "3402": 9888,
      "3403": 9889,
      "3404": 9890,
      "3405": 9891,
      "3406": 9892,
      "3407": 9893,
      "3408": 9894,
      "3409": 9895,
      "350": 9896,
      "351": 9897,
      "352": 9898,
      "353": 9899,
      "354": 9900,
      "355": 9901,
      "356": 9902,
      "357": 9903,
      "358": 9904,
      "359": 9905,
      "3510": 9906,
      "3512": 9907,
      "3513": 9908,
      "3514": 9909,
      "3515": 9910,
      "3516": 9911,
      "3517": 9912,
      "3518": 9913,
      "3519": 9914,
      "3520": 9915,
      "3523": 9916,
      "3524": 9917,
      "3525": 9918,
      "3526": 9919,
      "3527": 9920,
      "3528": 9921,
      "3529": 9922,
      "3530": 9923,
      "3534": 9924,
      "3535": 9925,
      "3536": 9926,
      "3537": 9927,
      "3538": 9928,
      "3539": 9929,
      "3540": 9930,
      "3545": 9931,
      "3546": 9932,
      "3547": 9933,
      "3548": 9934,
      "3549": 9935,
      "3550": 9936,
      "3556": 9937,
      "3557": 9938,
      "3558": 9939,
      "3559": 9940,
      "3560": 9941,
      "3567": 9942,
      "3568": 9943,
      "3569": 9944,
      "3570": 9945,
      "3578": 9946,
      "3579": 9947,
      "3580": 9948,
      "3589": 9949,
      "3590": 9950,
      "3588": 9951,
      "3577": 9952,
      "3566": 9953,
      "3599": 9954,
      "3555": 9955,
      "3544": 9956,
      "3533": 9957,
      "3522": 9958,
      "3598": 9959,
      "3511": 9960,
      "3576": 9961,
      "3554": 9962,
      "3587": 9963,
      "3597": 9964,
      "3586": 9965,
      "3596": 9966,
      "3532": 9967,
      "3565": 9968,
      "3575": 9969,
      "3543": 9970,
      "3585": 9971,
      "3595": 9972,
      "3564": 9973,
      "3574": 9974,
      "3584": 9975,
      "3521": 9976,
      "3553": 9977,
      "3594": 9978,
      "3563": 9979,
      "3573": 9980,
      "3542": 9981,
      "3531": 9982,
      "3552": 9983,
      "3583": 9984,
      "3593": 9985,
      "3562": 9986,
      "3572": 9987,
      "3541": 9988,
      "3551": 9989,
      "3582": 9990,
      "3592": 9991,
      "3561": 9992,
      "3571": 9993,
      "3581": 9994,
      "3591": 9995,
      "3500": 9996,
      "3501": 9997,
      "3502": 9998,
      "3503": 9999
    },
    "merges": [
      "1 0",
      "1 2",
      "1 3",
      "1 4",
      "1 5",
      "1 6",
      "1 7",
      "1 8",
      "1 9",
      "2 0",
      "2 3",
      "2 4",
      "2 5",
      "2 6",
      "2 7",
      "2 8",
      "2 9",
      "3 0",
      "3 4",
      "3 5",
      "3 6",
      "3 7",
      "3 8",
      "3 9",
      "4 0",
      "4 5",
      "4 6",
      "4 7",
      "4 8",
      "4 9",
      "5 0",
      "5 6",
      "5 7",
      "5 8",
      "5 9",
      "6 0",
      "6 7",
      "6 8",
      "6 9",
      "7 0",
      "7 8",
      "7 9",
      "8 0",
      "8 9",
      "9 0",
      "8 8",
      "7 7",
      "6 6",
      "9 9",
      "5 5",
      "4 4",
      "3 3",
      "2 2",
      "9 8",
      "1 1",
      "7 6",
      "5 4",
      "8 7",
      "9 7",
      "8 6",
      "9 6",
      "3 2",
      "6 5",
      "7 5",
      "4 3",
      "8 5",
      "9 5",
      "6 4",
      "7 4",
      "8 4",
      "2 1",
      "5 3",
      "9 4",
      "6 3",
      "7 3",
      "4 2",
      "3 1",
      "5 2",
      "8 3",
      "니 까",
      "9 3",
      "6 2",
      "7 2",
      "4 1",
      "5 1",
      "8 2",
      "는 데",
      "9 2",
      "6 1",
      "7 1",
      "8 1",
      "9 1",
      "0 0",
      "0 1",
      "0 2",
      "0 3",
      "0 4",
      "0 5",
      "0 6",
      "0 7",
      "0 8",
      "0 9",
      "들 어",
      "다 고",
      "잖 아",
      "생 각",
      "신 디",
      "아 니",
      "에 서",
      "가 지",
      "라 고",
      "하 는",
      "으 면",
      "한 테",
      "으 로",
      "사 람",
      "아 이",
      "었 어",
      "다 가",
      "가지 고",
      "는 거",
      "머 니",
      "모 르",
      "아 서",
      "그 렇",
      "어 서",
      "하 고",
      "거 든",
      "그 러",
      "면 서",
      "먹 어",
      "어 요",
      "들 이",
      "좋 아",
      "친 구",
      "학 교",
      "까 지",
      "려 고",
      "부 난",
      "얘 기",
      "우 리",
      "주 게",
      "거 기",
      "구 나",
      "버 리",
      "부 터",
      "에 는",
      "하 면",
      "하 지",
      "해 서",
      "그 런",
      "니 깐",
      "니 다",
      "다 니",
      "으 니까",
      "1 10",
      "1 12",
      "1 13",
      "1 14",
      "1 15",
      "1 16",
      "1 17",
      "1 18",
      "1 19",
      "2 10",
      "2 12",
      "2 13",
      "2 14",
      "2 15",
      "2 16",
      "2 17",
      "2 18",
      "2 19",
      "2 20",
      "2 23",
      "2 24",
      "2 25",
      "2 26",
      "2 27",
      "2 28",
      "2 29",
      "3 10",
      "3 12",
      "3 13",
      "3 14",
      "3 15",
      "3 16",
      "3 17",
      "3 18",
      "3 19",
      "3 20",
      "3 23",
      "3 24",
      "3 25",
      "3 26",
      "3 27",
      "3 28",
      "3 29",
      "3 30",
      "3 34",
      "3 35",
      "3 36",
      "3 37",
      "3 38",
      "3 39",
      "4 10",
      "4 12",
      "4 13",
      "4 14",
      "4 15",
      "4 16",
      "4 17",
      "4 18",
      "4 19",
      "4 20",
      "4 23",
      "4 24",
      "4 25",
      "4 26",
      "4 27",
      "4 28",
      "4 29",
      "4 30",
      "4 34",
      "4 35",
      "4 36",
      "4 37",
      "4 38",
      "4 39",
      "4 40",
      "4 45",
      "4 46",
      "4 47",
      "4 48",
      "4 49",
      "5 10",
      "5 12",
      "5 13",
      "5 14",
      "5 15",
      "5 16",
      "5 17",
      "5 18",
      "5 19",
      "5 20",
      "5 23",
      "5 24",
      "5 25",
      "5 26",
      "5 27",
      "5 28",
      "5 29",
      "5 30",
      "5 34",
      "5 35",
      "5 36",
      "5 37",
      "5 38",
      "5 39",
      "5 40",
      "5 45",
      "5 46",
      "5 47",
      "5 48",
      "5 49",
      "5 50",
      "5 56",
      "5 57",
      "5 58",
      "5 59",
      "6 10",
      "6 12",
      "6 13",
      "6 14",
      "6 15",
      "6 16",
      "6 17",
      "6 18",
      "6 19",
      "6 20",
      "6 23",
      "6 24",
      "6 25",
      "6 26",
      "6 27",
      "6 28",
      "6 29",
      "6 30",
      "6 34",
      "6 35",
      "6 36",
      "6 37",
      "6 38",
      "6 39",
      "6 40",
      "6 45",
      "6 46",
      "6 47",
      "6 48",
      "6 49",
      "6 50",
      "6 56",
      "6 57",
      "6 58",
      "6 59",
      "6 60",
      "6 67",
      "6 68",
      "6 69",
      "7 10",
      "7 12",
      "7 13",
      "7 14",
      "7 15",
      "7 16",
      "7 17",
      "7 18",
      "7 19",
      "7 20",
      "7 23",
      "7 24",
      "7 25",
      "7 26",
      "7 27",
      "7 28",
      "7 29",
      "7 30",
      "7 34",
      "7 35",
      "7 36",
      "7 37",
      "7 38",
      "7 39",
      "7 40",
      "7 45",
      "7 46",
      "7 47",
      "7 48",
      "7 49",
      "7 50",
      "7 56",
      "7 57",
      "7 58",
      "7 59",
      "7 60",
      "7 67",
      "7 68",
      "7 69",
      "7 70",
      "7 78",
      "7 79",
      "8 10",
      "8 12",
      "8 13",
      "8 14",
      "8 15",
      "8 16",
      "8 17",
      "8 18",
      "8 19",
      "8 20",
      "8 23",
      "8 24",
      "8 25",
      "8 26",
      "8 27",
      "8 28",
      "8 29",
      "8 30",
      "8 34",
      "8 35",
      "8 36",
      "8 37",
      "8 38",
      "8 39",
      "8 40",
      "8 45",
      "8 46",
      "8 47",
      "8 48",
      "8 49",
      "8 50",
      "8 56",
      "8 57",
      "8 58",
      "8 59",
      "8 60",
      "8 67",
      "8 68",
      "8 69",
      "8 70",
      "8 78",
      "8 79",
      "8 80",
      "8 89",
      "9 10",
      "9 12",
      "9 13",
      "9 14",
      "9 15",
      "9 16",
      "9 17",
      "9 18",
      "9 19",
      "9 20",
      "9 23",
      "9 24",
      "9 25",
      "9 26",
      "9 27",
      "9 28",
      "9 29",
      "9 30",
      "9 34",
      "9 35",
      "9 36",
      "9 37",
      "9 38",
      "9 39",
      "9 40",
      "9 45",
      "9 46",
      "9 47",
      "9 48",
      "9 49",
      "9 50",
      "9 56",
      "9 57",
      "9 58",
      "9 59",
      "9 60",
      "9 67",
      "9 68",
      "9 69",
      "9 70",
      "9 78",
      "9 79",
      "9 80",
      "9 89",
      "9 90",
      "그 래",
      "나 가",
      "더 라",
      "들 은",
      "물 어",
      "번 에",
      "세 요",
      "수 다",
      "아 버",
      "제 주",
      "하 게",
      "x x",
      "거 라",
      "거 야",
      "나 오",
      "맛 있",
      "선 생",
      "아 무",
      "았 어",
      "언 니",
      "올 라",
      "이 라",
      "있 었",
      "자 기",
      "하 나",
      "해 야",
      "9 88",
      "겠 다",
      "다 음",
      "먹 으",
      "면 은",
      "시 간",
      "어 디",
      "어 머니",
      "여 기",
      "있 어",
      "하 다",
      "하 니까",
      "해 도",
      "했 어",
      "11 1",
      "그렇 게",
      "8 77",
      "9 77",
      "괜 찮",
      "남 자",
      "네 가",
      "는 디",
      "리 가",
      "보 다",
      "알 아",
      "엄 마",
      "었 는데",
      "여 자",
      "요 일",
      "으 네",
      "은 데",
      "이 가",
      "정 도",
      "할 머니",
      "해 주",
      "22 1",
      "22 2",
      "아버 지",
      "7 66",
      "8 66",
      "9 66",
      "것 도",
      "겠 어",
      "그 랬",
      "나 서",
      "님 이",
      "돌 아",
      "들 도",
      "보 고",
      "보 면",
      "보 니까",
      "봤 어",
      "아 빠",
      "어 멍",
      "오 빠",
      "이 름",
      "이 제",
      "재 미",
      "학 생",
      "33 1",
      "33 2",
      "33 3",
      "32 1",
      "들어 가",
      "/ (",
      "6 55",
      "7 55",
      "8 55",
      "8 76",
      "9 55",
      "9 76",
      "i n",
      "가 져",
      "경 허",
      "고 기",
      "공 부",
      "그 거",
      "그 때",
      "기 억",
      "내 려",
      "누 구",
      "더 라고",
      "동 생",
      "떨 어",
      "리 고",
      "마 음",
      "버 려",
      "부 러",
      "살 아",
      "아 닌",
      "아 방",
      "아 프",
      "았 는데",
      "애 기",
      "어 떵",
      "여 행",
      "옛 날",
      "은 디",
      "이 러",
      "이 서",
      "재 밌",
      "지 는",
      "지 만",
      "처 음",
      "하 기",
      "힘 들",
      "44 1",
      "44 2",
      "44 3",
      "44 4",
      "제주 도",
      "선생 님",
      ") )",
      ") /(",
      "가 서",
      "가 이",
      "갔 다",
      "겅 허",
      "그 네",
      "그 넹",
      "나 는",
      "나 라",
      "나 면",
      "대 로",
      "댕 기",
      "드 라",
      "들 을",
      "들 한테",
      "똑 같",
      "렇 게",
      "마 다",
      "만 원",
      "만 큼",
      "말 이",
      "말 했",
      "머 리",
      "먹 을",
      "바 이",
      "보 내",
      "봐 야",
      "사 투",
      "소 리",
      "스 타",
      "습 니다",
      "안 되",
      "않 아",
      "얼 굴",
      "없 어",
      "었 던",
      "에 요",
      "였 어",
      "와 서",
      "요 즘",
      "우 다",
      "음 식",
      "이 런",
      "이 상",
      "일 어",
      "있 는",
      "전 에",
      "전 화",
      "지 고",
      "지 금",
      "쩌 고",
      "할 망",
      "해 신디",
      "했 었",
      "54 1",
      "54 2",
      "54 3",
      "43 1",
      "모르 겠",
      "in g",
      "( (",
      "a d",
      "c o",
      "가 는",
      "가 루",
      "가 야",
      "갔 어",
      "갖 고",
      "거 나",
      "거 지",
      "걱 정",
      "건 강",
      "건 데",
      "건 디",
      "걸 로",
      "걸 리",
      "것 만",
      "것 이",
      "결 혼",
      "경 우",
      "고 등",
      "기 다",
      "나 고",
      "나 중",
      "난 이",
      "났 어",
      "너 무",
      "네 는",
      "년 에",
      "다 는",
      "다 이",
      "더 니",
      "던 데",
      "동 네",
      "동 안",
      "디 다",
      "라 서",
      "렸 어",
      "마 트",
      "만 들",
      "만 은",
      "말 로",
      "말 하",
      "맞 아",
      "무 서",
      "병 원",
      "보 이",
      "부 모",
      "부 지",
      "분 이",
      "비 싸",
      "빨 리",
      "사 이",
      "사 장",
      "사 주",
      "사 진",
      "생 기",
      "스 크",
      "시 켜",
      "시 키",
      "신 가",
      "신 거",
      "신 기",
      "아 까",
      "아 주",
      "아 직",
      "야 이",
      "어 른",
      "어 시",
      "왜 냐",
      "운 동",
      "워 서",
      "은 거",
      "이 거",
      "이 시",
      "이 십",
      "이 야",
      "있 잖아",
      "자 고",
      "조 그",
      "지 도",
      "진 짜",
      "집 에",
      "쪽 으로",
      "추 룩",
      "케 이",
      "하 난",
      "하 루",
      "하 여",
      "해 가",
      "해 부난",
      "헌 디",
      "들어 서",
      "들어 오",
      "으면 서",
      "는거 야",
      "들이 랑",
      "a n",
      "a r",
      "a u",
      "c l",
      "g h",
      "n a",
      "r e",
      "s s",
      "가 고",
      "가 까",
      "가 락",
      "가 르",
      "가 면",
      "간 에",
      "갔 는데",
      "같 아",
      "거 리",
      "겠 지",
      "겠 다고",
      "겨 울",
      "고 마",
      "고 사",
      "고 양",
      "교 수",
      "귀 여",
      "귀 찮",
      "그 냉",
      "근 데",
      "기 가",
      "기 도",
      "기 름",
      "끼 리",
      "나 무",
      "나 물",
      "나 온",
      "나 와",
      "나 왔",
      "나 이",
      "나 신디",
      "남 편",
      "냐 고",
      "넷 플",
      "노 래",
      "놈 의",
      "놓 고",
      "놔 두",
      "는 지",
      "님 은",
      "다 녀",
      "다 녔",
      "다 른",
      "다 행",
      "닮 아",
      "당 시",
      "당 에",
      "당 연",
      "당 히",
      "대 가",
      "대 단",
      "대 면",
      "대 체",
      "대 학",
      "데 도",
      "데 려",
      "돼 지",
      "된 다",
      "드 는",
      "때 는",
      "때 문",
      "라 도",
      "랐 어",
      "럽 게",
      "레 비",
      "려 서",
      "로 그",
      "르 방",
      "리 스",
      "마 시",
      "마 씨",
      "마 씸",
      "마 지",
      "만 에",
      "만 한",
      "만 히",
      "많 아",
      "말 고",
      "말 해",
      "먹 고",
      "먹 는",
      "메 기",
      "며 느",
      "모 가",
      "모 양",
      "무 리",
      "문 제",
      "미 안",
      "바 닥",
      "바 람",
      "바 로",
      "밖 에",
      "받 아",
      "배 고",
      "배 우",
      "버 린",
      "번 째",
      "보 난",
      "보 는",
      "볼 까",
      "부 르",
      "부 분",
      "분 위",
      "비 슷",
      "사 는",
      "사 무",
      "살 았",
      "새 끼",
      "생 겼",
      "생 활",
      "서 방",
      "서 울",
      "세 상",
      "스 러",
      "스 트",
      "습 니까",
      "시 장",
      "싫 어",
      "심 이",
      "씨 가",
      "아 가",
      "아 닙",
      "아 저",
      "아 지",
      "아 침",
      "아 파",
      "알 았",
      "야 지",
      "어 가",
      "어 나",
      "어 려",
      "어 린",
      "어 제",
      "어 지",
      "언 제",
      "에 어",
      "여 서",
      "여 섯",
      "연 락",
      "영 화",
      "예 요",
      "오 늘",
      "오 라",
      "오 십",
      "우 스",
      "움 직",
      "육 지",
      "으 러",
      "을 거",
      "을 까",
      "이 랑",
      "이 래",
      "이 번",
      "이 렇게",
      "인 가",
      "인 데",
      "인 이",
      "일 이",
      "일 주",
      "있 네",
      "자 리",
      "장 고",
      "저 것",
      "저 기",
      "저 께",
      "조 금",
      "종 일",
      "줘 야",
      "지 난",
      "지 어",
      "집 이",
      "짜 리",
      "쪽 에",
      "처 럼",
      "천 원",
      "초 등",
      "카 부",
      "크 라",
      "키 우",
      "필 라",
      "필 요",
      "하 맨",
      "하 믄",
      "하 는데",
      "하 잖아",
      "하 더라고",
      "학 년",
      "한 다",
      "한 데",
      "한 번",
      "해 난",
      "해 가지고",
      "핸 드",
      "했 던",
      "했 는데",
      "허 고",
      "허 난",
      "혼 자",
      "화 장",
      "생각 해",
      "하는 거",
      "었어 요",
      "버리 면",
      "버리 니까",
      "번에 도",
      "요일 날",
      "돌아 가",
      "사투 리",
      "co m",
      ". )/(",
      "l au",
      "o s",
      "▁ ((",
      "가 게",
      "가 격",
      "가 기",
      "가 끔",
      "가 난",
      "가 다",
      "가 도",
      "가 멍",
      "가 믄",
      "가 민",
      "가 슴",
      "가 니까",
      "가 면서",
      "간 다",
      "간 단",
      "간 호",
      "갔 지",
      "갔 다가",
      "같 은",
      "같 이",
      "개 가",
      "개 를",
      "개 월",
      "거 고",
      "거 난",
      "거 는",
      "거 니",
      "거 랜",
      "거 짓",
      "거 라고",
      "건 가",
      "건 지",
      "검 사",
      "검 색",
      "검 진",
      "것 들",
      "것 을",
      "게 난",
      "게 메",
      "게 임",
      "겠 네",
      "겨 서",
      "결 국",
      "고 구",
      "고 라",
      "고 춧",
      "공 짜",
      "과 수",
      "관 광",
      "굉 장",
      "교 육",
      "구 니",
      "구 멍",
      "구 요",
      "국 민",
      "국 수",
      "국 어",
      "국 인",
      "군 데",
      "궁 금",
      "그 나",
      "그 냥",
      "그 디",
      "그 만",
      "그 자",
      "그 다음",
      "근 처",
      "기 숙",
      "기 지",
      "길 래",
      "김 치",
      "깨 끗",
      "꺼 번에",
      "꾸 로",
      "꾸 준",
      "끄 러",
      "나 게",
      "나 난",
      "나 도",
      "나 머",
      "나 쁘",
      "나 지",
      "나 니까",
      "난 다",
      "날 에",
      "날 은",
      "났 는데",
      "내 가",
      "내 고",
      "내 는",
      "내 서",
      "내 일",
      "냄 새",
      "냉 동",
      "냉 장고",
      "냐 면",
      "너 네",
      "노 트",
      "놓 은",
      "놓 으면",
      "놔 서",
      "놨 어",
      "누 게",
      "누 군",
      "느 낌",
      "니 가",
      "다 르",
      "다 리",
      "다 섯",
      "달 라",
      "달 에",
      "달 라고",
      "대 기",
      "대 통",
      "대 회",
      "대 학교",
      "던 디",
      "델 링",
      "도 로",
      "도 망",
      "도 시",
      "도 와",
      "도 움",
      "독 서",
      "동 문",
      "동 산",
      "동 영",
      "돼 서",
      "됐 어",
      "되 고",
      "되 는",
      "되 면",
      "되 서",
      "되 어",
      "되 지",
      "되 니까",
      "된 다고",
      "두 고",
      "뒤 집",
      "드 라고",
      "들 고",
      "따 뜻",
      "때 도",
      "땜 에",
      "떡 볶",
      "라 는",
      "라 리",
      "라 면",
      "라 스",
      "라 이",
      "라 인",
      "랑 이",
      "래 도",
      "랜 드",
      "러 서",
      "레 스",
      "렸 을",
      "로 나",
      "로 운",
      "롯 데",
      "리 는",
      "리 러",
      "리 모",
      "마 는",
      "마 라",
      "마 리",
      "마 스",
      "마 을",
      "마 자",
      "마 찬",
      "만 약",
      "만 하면",
      "많 이",
      "말 도",
      "말 아",
      "말 에",
      "말 은",
      "말 을",
      "맞 춰",
      "맞 수다",
      "먹 언",
      "먹 었",
      "먹 이",
      "먹 으면",
      "메 라",
      "면 허",
      "명 이",
      "모 슬",
      "목 욕",
      "몰 라",
      "몰 랐",
      "몸 무",
      "못 하",
      "무 시",
      "무 원",
      "물 도",
      "물 에",
      "물 을",
      "물 이",
      "미 역",
      "미 용",
      "바 다",
      "바 닷",
      "바 지",
      "반 에",
      "받 고",
      "방 법",
      "방 에",
      "밭 에",
      "배 추",
      "버 거",
      "버 렸",
      "버 릴",
      "버 렸어",
      "번 호",
      "벌 레",
[...]
